/**
  ******************************************************************************
  * @file    network_data_params.c
  * @author  AST Embedded Analytics Research Platform
  * @date    2026-03-08T16:47:19-0700
  * @brief   AI Tool Automatic Code Generator for Embedded NN computing
  ******************************************************************************
  * Copyright (c) 2026 STMicroelectronics.
  * All rights reserved.
  *
  * This software is licensed under terms that can be found in the LICENSE file
  * in the root directory of this software component.
  * If no LICENSE file comes with this software, it is provided AS-IS.
  ******************************************************************************
  */

#include "network_data_params.h"


/**  Activations Section  ****************************************************/
ai_handle g_network_activations_table[1 + 2] = {
  AI_HANDLE_PTR(AI_MAGIC_MARKER),
  AI_HANDLE_PTR(NULL),
  AI_HANDLE_PTR(AI_MAGIC_MARKER),
};




/**  Weights Section  ********************************************************/
AI_ALIGNED(32)
const ai_u64 s_network_weights_array_u64[157122] = {
  0xbbfbae66bcde8955U, 0x3e5038cfbdfd3727U, 0xbe85ac16bca59d00U, 0x3d2248653ea3bb52U,
  0x3dbc8f89bd2a8825U, 0xbe23c8fbbe04b624U, 0x3deafa573eb51343U, 0x3e0dfc4dbec9cb6bU,
  0x3c046b2b3e3551e0U, 0xbe5680ffbdd1e60bU, 0x3e90c734be3a9068U, 0xbe40a34e3dd7f32eU,
  0x3e78018cbe17795dU, 0xbe4d3b803e9d1f79U, 0x3e61b10cbe007a3fU, 0x3e557b26be32530aU,
  0x3e3ca04d3e25dfffU, 0xbe96b09f3e2aa99cU, 0x3e9aa8a43df0a435U, 0x3dbcabad3e11bae1U,
  0xbd8b82d3bda7c386U, 0xbe31437dbe00e5efU, 0x3e4a3cebbd5930bdU, 0xbe977aa8be224eb7U,
  0x3e8fee943e11fcc3U, 0xbea73e433d56777dU, 0x3e5931513c8eca4bU, 0x3e306e6bbde0611fU,
  0xbd7b56253dfc6b19U, 0x3e466c88bd294361U, 0x3c124115be594383U, 0xbe2c42ddbbd4adf8U,
  0xbd71a300bdd18593U, 0x3e65a9473d98d2b8U, 0x3cecdbc33e6c29e4U, 0x3c80b6d6be3a2720U,
  0xbde1163a3cacd3b7U, 0xbc7fb9553d83f3c5U, 0x3e6076473df4f419U, 0xbdc1a5333d393d2dU,
  0x3e4816aabb0e570aU, 0x3d5c191c3e88fd92U, 0xbde3971a3e52722dU, 0x3c6d1f31be908cc9U,
  0xbe6ee2e7bde135e5U, 0x3e0e70153cf28753U, 0xbe3b0f513e4432ccU, 0x3e155708bdaa8adfU,
  0xbe0cacc1bacaaf80U, 0x3cc38ef1be43dbd4U, 0xbdfca0ddbdc2aaccU, 0x3d72c2e13cd695d2U,
  0xbcaeab4ebd73fe31U, 0xbe365c5f3d40cdc1U, 0x3de89dc23e2209e7U, 0xbdb3d941bec38c02U,
  0x3d8f7e6b3e75da3fU, 0xbb93ed98be951ed8U, 0x3e828b153e87b158U, 0xbe7b13623e1930edU,
  0xbe3c0bbcbdc56831U, 0xbde5298cbcce0363U, 0x3e5fc9e53cdcdf80U, 0xbe76e973be9a3669U,
  0xbe83a9063e0625aeU, 0x3eb7d63d3da16f03U, 0x3e1332663d7d79e2U, 0x3e86fd5a3de9b4ecU,
  0xbe9349d53c7cd2aeU, 0x3dfca2df3eb24d9aU, 0x3dfd4655bead72bcU, 0xbdf6391c3daa1a91U,
  0xbd6eb79cbd13416cU, 0x3ddb6f4abe381e14U, 0x3d1617d63e4023caU, 0xbd3f0cb2bce230c4U,
  0xbc26ea2bbdcf8a73U, 0x3e1bd40a3d68a63eU, 0xbe391a3fbdbe16dcU, 0x3d625facbe8a7f9eU,
  0x3e3554313e05cefaU, 0x3de8191dba9fd32bU, 0xbe98b6343eb2d00bU, 0x3e0e9d14bd9a3c3cU,
  0xbd6888b9be43dc0bU, 0xbe13f4293e574ad4U, 0x3d0712533c43cf46U, 0x3d0afeb53e61d047U,
  0x3e2779cdbd9446a1U, 0xbdb88d733ce8c7f9U, 0x3ecdc1463e0edeebU, 0xbde8bb3f3d038a75U,
  0x3da7ff3d3e494d9eU, 0x3d937f22bea8bc00U, 0xbd135c613d98851eU, 0x3daeff313d347b68U,
  0x3d62cd493c1055aaU, 0xbd78f2fe3d68a432U, 0xbda4f202bdf7944eU, 0xbd0d07403e80a28cU,
  0x3df21d51be81e7ecU, 0x3e2b57283caf5249U, 0xbe00b1edbd5fb860U, 0x3d8759d53e52548cU,
  0xbd82bf2cbd811dd4U, 0x3d98a28e3cc96aa0U, 0x3d1f94d7bddbce4cU, 0xbc88eb113dfc4b3bU,
  0xbdd3926c3bf41a8aU, 0xbe3c554abdb74624U, 0x3dd73542be28a2ecU, 0x3e88fae1bd226f7fU,
  0x3dc93c363ea2c7bcU, 0xbe0d60e73e3c54a5U, 0x3d20b73bbc828ac3U, 0x3d468d39be0a9b65U,
  0xbdd589d43d37dacbU, 0x3def59033d93d407U, 0xbec4fa443e3a9bd6U, 0x3ec7190d3d914d24U,
  0xbe8819b0be9ec8bdU, 0xbea345333e5932d3U, 0x3e8555dd39aa5bd1U, 0x3e04b474bd379fb3U,
  0xbd165dec3e95600fU, 0xbe89c9933e17f0eeU, 0xbd5100233e93fd83U, 0x3e33c140be7b1884U,
  0xbba3dbc5bd4bb14aU, 0xbdb0b0a33d037c43U, 0xbd4e4e263d5ba631U, 0x3e50566c3e69dfceU,
  0x3d7f054f3e4d41dcU, 0x3cefb64abe463462U, 0xbe0df5e6bdf86206U, 0x3df90db7bebad31aU,
  0x3e93ecec3e2de24dU, 0x3de87c633d0561b9U, 0xbe4198bb3e774d7fU, 0xbd5f5d8fbe60007cU,
  0xbd805e453e32aebeU, 0xbe5c3e47bc88ff6aU, 0x3d22d61abe3f4237U, 0x3d840f693e15d9bdU,
  0xbeae6715bea91440U, 0xbe0f52e83de9d518U, 0xbe5c4696bd8883b9U, 0xbe2a6244be804ed0U,
  0xbd800d5cbe78cfbfU, 0xbdcd0005bda065bcU, 0xbe1b05a5bde05112U, 0x3e0062c73da99210U,
  0xbc5a0e4dbf0b0560U, 0xbded36353d29fb8aU, 0xbe4c804abe5719bcU, 0xbe5b3c33be80c1d6U,
  0xbe34c506be88d77bU, 0x3da2dbd23d8d11e2U, 0xbe3fa062be0a1117U, 0xbda6cf59bdd058eeU,
  0xbda1e2873c872db6U, 0x38b00ea53bfe512aU, 0x3d4333f1bd5ccb01U, 0xbb414056bd7d2a57U,
  0x3d85490ebd9b2b38U, 0xbe0ab5893cb43418U, 0xbdfa75b03d27e332U, 0xbc1250edbd7d692bU,
  0xbc02f32a3d53693cU, 0xbd6440bebdc68ea4U, 0xbda0ce0bbda6d893U, 0xbdddc942b9f5c817U,
  0x3cbeef53bcf7115eU, 0xbca5dd55bdde64e6U, 0xbda428513d9762a8U, 0xbd935142bd2f4008U,
  0x3b2c1681bda63b33U, 0x3c23197dbdb9729cU, 0x3cc7c7bc3c9b1080U, 0xbd10715d3d596b63U,
  0xbd5a7796bd0d4f08U, 0xbca78e3cbdb5b5ffU, 0xbd15a028bd82ee86U, 0x3c79d8a23c607adeU,
  0xbc98facebd7bde9bU, 0xbd0625f7bcfe1d7dU, 0xbd7788e53ca3031aU, 0xbdccb1803aa082ffU,
  0xbd4dd87f3d1c6d6fU, 0x3c6ffb50bd8b39daU, 0xbd8c0e1ebd406d09U, 0x3b841189bdd4de72U,
  0xbc0424513d21a7b3U, 0xbc8adb59bd221b5aU, 0x3d2b5d29bd44e6ecU, 0xbd9a4967bc7c90e9U,
  0xbcb768b93d1c3e48U, 0xbbb3850dbc490065U, 0xbd400398bd6a7404U, 0xbdda4effbd08c083U,
  0xbc4e4cf8bd15448fU, 0xbd2dea4d3cf614a1U, 0x3c2d96563c2c3a80U, 0xbdd3eb9a3d4abfd0U,
  0xbc37f5173d0f10d9U, 0x3cf5704abbda3e25U, 0x3a3b080a3d806481U, 0xbd93fc383ccff1e7U,
  0x3cf73c34bb25e099U, 0xbd3fddae3d3f5434U, 0xbd80d13a3c2598e6U, 0xbd93c1e53d087e30U,
  0x3cf4e05d3ccdb41dU, 0xbbc147453cd3fe1dU, 0x3d3041eebd08469dU, 0xbd87dbbdbddebf89U,
  0x3cb29dd0bdb6b64aU, 0x3d8992d6bd844ab3U, 0x3d22e0013d194ff5U, 0xbd7b14763d01eb41U,
  0x3d19b9d83c5e775bU, 0x3bc4d1cc3d0a316dU, 0xbda99c3ebda0982dU, 0x3b519fca3c8a9a89U,
  0x3d98c029bd85db65U, 0x3d2651fe3d54ebbcU, 0x38e8fd88bdd08989U, 0x3c576dc0bc8f6c87U,
  0x3b04e4733d297884U, 0xbda44f75bdfef0edU, 0xbd85cd983d333269U, 0x3ce1de473d10901fU,
  0x3b12f41ebd196364U, 0x3cf5307ebdefed2aU, 0xbc3e1a10bbe8d218U, 0xbd4ea7c83d6e7c18U,
  0xbdc67f29bdac24a3U, 0x3c6679e73c142cbcU, 0xbc343db1bcbf1b3dU, 0x3998af85bdb64b38U,
  0xbd93918d3a88f935U, 0xbd9336fc3d8400c3U, 0xbd9b3d14bcb14e50U, 0xbce71f46bdb074a8U,
  0xbdb664923cfab95eU, 0xbc9c3716bcb187a6U, 0x3cb22578bd5ef81fU, 0x3c5647a1bc73df99U,
  0xbcd22231bda09950U, 0xbd748570bdd089edU, 0x3caf3f7cbd897ac6U, 0xbd9affbfbc81a089U,
  0xbbe2012e3ca5fa98U, 0xbddffd4cbdc73e90U, 0xbde33f573cffad69U, 0xbd78a2c03d5ca14fU,
  0xbdb4f08dbca6f6e0U, 0xbd251a2abd886737U, 0x3bdddb0d3d0f3069U, 0xbbf0797bbc4a72cdU,
  0x3be64bd6bca7df62U, 0x3bc52e60bd5d3f87U, 0xbcf5902bbd62dd75U, 0x3d7339ed3c8ec580U,
  0x3d530e313c4a7ea4U, 0xbc218a5dbd5b695cU, 0xbd8c0872bd8122fbU, 0x3d731a72bcc688eeU,
  0x3d1f8257bd71c9c6U, 0x3d0c97c63bb81a38U, 0xbd82e5debbf80e3dU, 0xbd9fccec3d4d3b5aU,
  0xbcf78c73bd456fe6U, 0xbd6639d4bd535ee8U, 0xbdc408debd206250U, 0xbcd18480b9694bc5U,
  0xbce2594cbcaa223cU, 0x3bc043d0bd914deaU, 0x3d7778e7bd9208e7U, 0xbd0dd137bdf29f57U,
  0x3c1f76f7bcf8df0cU, 0x3a5837273c44dd66U, 0xbd57d065bd104495U, 0xbd8c9f973d70d831U,
  0x3d780aee3d41ac68U, 0x3c6a8adbbd4925f5U, 0xbc0a73b0bd4c07cbU, 0xbd935d45bd9181beU,
  0x3cdc6bd3bdd30a08U, 0x3d68bda0bdc8cbefU, 0xbd1de4a2bd6e3762U, 0xbd6b255abd178ae7U,
  0x3d4e5b21bd9e9b67U, 0x3d1f25dfbccf6a46U, 0xbdbb16703d53987cU, 0xbce9334bbcb7cd01U,
  0x3c8f2637bd351227U, 0xbd503e783d29a0c0U, 0x3d3e78a9bc65e519U, 0x3d22c5f83d268656U,
  0x3d75633abd0c0517U, 0xbd98f24bbd1e3af4U, 0x3cdce5cabd0537c8U, 0x3cd561d93da5a074U,
  0xbd552a3dbc5d4804U, 0xbd89cae9bc237803U, 0x3d4c6bf8bd5abf9bU, 0x3d13733f3cf6dfd2U,
  0xbcff88823c470d0aU, 0xbda1c512ba79424cU, 0xbdab62883bc421f5U, 0x3d3987e73d3a1c68U,
  0x3cd9f626bc38cd61U, 0xbd18d799bd5aa3baU, 0xbd91d438bdafd0baU, 0x3d85cc86bbafdff6U,
  0xbb8540d8bd3d4887U, 0xbc3aea6ebd348256U, 0x3ccb9f4fbdb33b49U, 0xbd533e8abdaf4977U,
  0xbd26a6653d2c285cU, 0xbd9f7d533b43e162U, 0x3b6b3cb53cd2fd8eU, 0xbd9954ddbdbd20cbU,
  0x3d7bd46c3c17f003U, 0xbd5a201f3d084ab0U, 0xbd8dddfabdb1caa0U, 0xbd309eb2bc4cf7b7U,
  0x3c95a38dbd96f719U, 0xbd99faf13c9a6b54U, 0xbda146acbd9c92c9U, 0x3d140c3dbc5a10c0U,
  0x3d1b6c79bd5d17d1U, 0xbd93bd6bbc4136ebU, 0x3c1f26523d233f14U, 0x3d3797a0bda015a3U,
  0x3d4c777b3ca50af0U, 0xbccb142fbd4c1d34U, 0xbd12f363bc153d1cU, 0xbd2e6b4a3c6fb05dU,
  0xbd1ef436bd6bf439U, 0x3d8b58cabd8ac29bU, 0xbd98dd183d3b566fU, 0xbdaff1b3bd246739U,
  0x3d8f3d383c2ee51fU, 0xbc91b94ebddadd00U, 0x3d5139b3bd7de1deU, 0xbcfa50a5bdce5997U,
  0x3d2dfdfeb906ce4aU, 0x3d49b95b3cb73c87U, 0xbcc9deae3d892a42U, 0xbbd83551bd36a3bbU,
  0x3d1055ccbcfff24aU, 0x3cecfd11bd8788f7U, 0xbd955e93bd068b54U, 0x3ca30c4ebd0ba156U,
  0x3c067c48bd1b7468U, 0xbda15210bc6308a0U, 0xbd4b6a4fbce17d7fU, 0x3b9a2f2f3d58c740U,
  0xbc3b52fcbda85099U, 0xbdc823c13cb13042U, 0xbd89b118bc06c1d0U, 0x3d4ff3f4bda4661cU,
  0x3c8ccaf4bd04c7d9U, 0x3d23dd423d04c8e0U, 0xbd980a7a3d3f44f0U, 0x3d1438e73d223923U,
  0xbc7ec7dd3d25777dU, 0xbb358ac3bc9239f9U, 0x3c16c3853c8bbb15U, 0xbce7815dbd08226bU,
  0x3d38097c3c61b894U, 0xbcd37abebc76d961U, 0xbdbdf248bcdcdbd0U, 0xbdb8b1823b4b2347U,
  0xbdad1dbb3d1c226eU, 0xbd4d2c063bf1df7dU, 0xbc0e9da13cc615e3U, 0x3a4379733d6c164cU,
  0xbd9b1d48bd7e6593U, 0xbd497282bd7aac75U, 0xbcbb5d103d00294fU, 0x3d641acf3d0855f3U,
  0x3d339170bd5c9f42U, 0x3d77705cbc899033U, 0xbcee8860bba1fabbU, 0x3c915b833cd31294U,
  0x3d0bb4183d8df40bU, 0xbd8257dd3c870656U, 0x3d80f33f3c98386bU, 0x3d8992aebd93231eU,
  0xbd933a9c3aaaf388U, 0x3c087b463d89f7d0U, 0xbcf5ad90bd7d4b29U, 0xbd65f2e0bd4862b8U,
  0xbd88b27c3bee7bceU, 0x3d6c639d3d1fcf84U, 0x3d8b9274bd1d19fcU, 0x3d7313ef3d28f24bU,
  0x3d6b84aa3cf063b6U, 0xbd6adc3dbd587a9eU, 0xbd603c47bd4be820U, 0x3d2025fdbdbb2a20U,
  0xbdb3cd3a3d1c8e32U, 0xbca967603d6ae703U, 0xbd2b4dde3c03b2e2U, 0x3d2f4a78bc20e0e2U,
  0xbc957287bda3db7dU, 0x3b0b3953bd57f810U, 0xbd9eab03bd32a206U, 0x3d8b81e2bdafa5f7U,
  0x3d6fefe8bd906e90U, 0xbda09c94bc98e5f9U, 0xbd614bb4bda1b97aU, 0xbd69f644bd4c8f44U,
  0x3d2a663ebd566e8eU, 0x3c4471b63cb0269cU, 0xbda84cacbcdc57bcU, 0x3c6ba7f0bc956af5U,
  0x3d5f8a3ebd315281U, 0x3d4115dcbd5b12b1U, 0xbd67fc2a3ba7a3c4U, 0xbda125f53b808b81U,
  0xbdd09fa0bd9ca5edU, 0x3d37eb0c3d89dabaU, 0xbb915fcc3d15b826U, 0x3c7a3b9f3c7eb235U,
  0xbdb985cbbc8a944dU, 0xbd460e98bda83822U, 0x3cd9f92d3d24e6b8U, 0x3d16c2e9bd329324U,
  0x3ce23251bda0306bU, 0xbd606925bd5823a0U, 0xbdabbb4bbd924da5U, 0x3cc5511d3d443631U,
  0x3cdbea52bdb06a4cU, 0xbd11ef483d2e6025U, 0xbd1435d7bd5cfdd7U, 0xbd7e7b943d81778eU,
  0x3d9390a2bd92d05bU, 0xbd54a504bdb6bf5fU, 0x3d7a7b91bd915c59U, 0xbdae5343bd43fb43U,
  0xbd03b52fbd3075f9U, 0xbda3bc47bdb697a1U, 0x3c51d26ebb9229efU, 0xbc9e79f23d85bebcU,
  0xbbdbeaf13caaa246U, 0xbab5413dbc320304U, 0xbd49d1e2bd2a69ceU, 0xbd0a1011bbb6dd3fU,
  0x3d314630bdb96156U, 0xbd4c6b69bcee9100U, 0xbd23dbb4bdbd3a95U, 0x3d17cce83d5a5d53U,
  0xbd9d2ca0bd16ed1eU, 0xbaa9edc0bd59b83cU, 0x3d77aaf2bdcbf690U, 0x3d1ac74ebc4f3f6fU,
  0xbdc251fc3d247f2aU, 0x3d45e93cbd9979d4U, 0xbd90840f3d65e741U, 0xbd2afa18bd8d46f0U,
  0xbd3d815bbc3c9ac1U, 0xbca2911fbc00b53eU, 0xbd4e250abca80cf3U, 0x3d2cb556bcae458bU,
  0xbd427fea3cc5ea77U, 0xbcd582dbbdbda3f0U, 0x3d4a0ff33d18d57dU, 0xbdb547a2b738c0eaU,
  0xbddfadf9bc5efbc9U, 0xbd6ef8913c809ec4U, 0xbdbdc4a3bda6a4aaU, 0xbdbf73b93d2cd4f0U,
  0x3c8886a9bdc181e9U, 0xbbc02be33d88c550U, 0x3c9aea22bd5ecb92U, 0x3ccebb893c483741U,
  0x3d4edbe6bdab736bU, 0xbd8821593b682252U, 0x3c08cc5ebc95f55fU, 0xbd52884abc0abe3eU,
  0xbd55ad02bd454c1eU, 0x3c21f668bccaf67dU, 0x3d18ea30bd1e7071U, 0x3a31b39c3c63ca96U,
  0xbd7ab3eebd8ebc19U, 0xbcf6a172bd86eac5U, 0xbd1642edbcf48a8aU, 0xbdcfd8033c0cc2d7U,
  0xbdbfbea53d4a6e7aU, 0x3d133afabdcd4553U, 0xbca802973cff79d9U, 0xbd88d9c3bdb86f37U,
  0x3d0cf1b3bba16b44U, 0xbdafeb463c927295U, 0x3ced40eabd45db56U, 0xbdeaddc7bc26fc88U,
  0xbd17934b3d800073U, 0xbd982ee93c2d09b0U, 0xbc32438ebcb0aa56U, 0xbca9fc55bdd15f2dU,
  0x3c0dd82cbd8fb51fU, 0x3c805924bd2db6caU, 0x3d83836d3d10d7a2U, 0xbc84da5ebd50e2d5U,
  0x3c7208593d72b82fU, 0xbce6943bbd2f2652U, 0xbc4a43783bd4b7afU, 0xbc1d5c1fbb509a3aU,
  0x3d0925eb3cb72790U, 0xbd382a183ca39ee6U, 0xbdec781bbb881358U, 0xbce5c00ebd3bad38U,
  0x3cc147b5bd9ca7afU, 0xbda668163a4e5d0fU, 0x3cca1facbc9ccfd7U, 0xbdd39aa0bcf5c25eU,
  0xbd6a1edabdcc59feU, 0xbd068b02bc7e08cfU, 0x3cf03b25bd7fe371U, 0x3b04c6b0bc1f4c8bU,
  0x3d91fc5c3d6bb9e5U, 0xbc66b7003d7b268aU, 0xbcf810b5bdd47d06U, 0x3d0affabbde64557U,
  0x3d58ec623c5bb91cU, 0x3d7e2eafbcacf3b2U, 0xbdf5bb2b3d584d52U, 0xbd1680ccbc9240a9U,
  0x3bc74530bc73e1b1U, 0x3d087d38bc76e146U, 0x3d4ff011bd53633aU, 0x3b59146cba1c7f32U,
  0x3c906e603c7c66d6U, 0x3cb2c131bd80191eU, 0x3d2d32babce1b846U, 0xbd23efdcbda0f91eU,
  0xbd6fe0593d973561U, 0xbd09f6b53d58814dU, 0x3ce3d60dbd164be8U, 0x3d8d90fb3d6b13d8U,
  0xbcea6dbabd1dcb3aU, 0xbb18227b3d1568d8U, 0xbdb06da9bdbfcb6eU, 0xbd58c502bd9aa154U,
  0xbb94a757bdb3b540U, 0x3ce4da713c2d9ea8U, 0xbbd093edbd5ba75fU, 0xbd97043bbb01a0c9U,
  0xbd3fca9bbcfad9f6U, 0x3d20f78d3aea98e9U, 0xbdd6e7ed3cbf2980U, 0x3b915271bd13dd84U,
  0x3d6c1520bd76bf41U, 0xbcfc0ab13c5eb6d3U, 0xbcd9f2e838ba0fb6U, 0x3cc0fcfebdc0f82dU,
  0xbcfc4e9dbdc64a48U, 0xbdae00c3bd5c6a71U, 0xbd8e0216bdbb721eU, 0xbc2249893d7d36c6U,
  0xbda2f2b63befdcc7U, 0xbda72f5f3d8d7843U, 0x3c024a26bd581caeU, 0x3d6059a83cb1a56fU,
  0x3cf8b0343cf261c8U, 0xbd9499e6bdc58856U, 0x3c82608abbf99bb5U, 0xbdcb87c63d1a102fU,
  0xbcbd2fd0bdc1ec2fU, 0xbc21043a3c23c602U, 0xbcd2de753cb55490U, 0xbd2297c7bd8bb18eU,
  0xbd93c454bb9c18a8U, 0x3c5b7dafbdb410ceU, 0x3ce811dcbcb27273U, 0x3d5a8053bd959b3dU,
  0xbc471d01bc9bc664U, 0xbda3ecb4bdc5cca5U, 0xbd9e4f1fbcf8d1eeU, 0xbdc0c1613c9c911aU,
  0xbc4ee291bd47c222U, 0xbcb51e723bd0000fU, 0xbcf4e672bd6356aeU, 0x3cd5c5bd3d4c860cU,
  0xbca67ef9bd46a642U, 0xbc8ce36abdb0ada8U, 0xbddd3380bda4d2e3U, 0xbdc32f0dbb7467f0U,
  0x3d72feae3d1f0316U, 0xbc01dca2bdad4b08U, 0xbd1717233d5fa0daU, 0xbc2b9bd53aeb4298U,
  0xbd8ec98ebd400943U, 0xbceaf94fbda13ed0U, 0x3d86db51bd5e783fU, 0xbd4c2c843d77fe90U,
  0xbcfa7d773c91aca2U, 0xbd9ec913bd81d87dU, 0xbd8f9b47bd83c442U, 0xbc09c4e33d5e7856U,
  0xbd7c0ca3bc853e0eU, 0x3ce969e63be1c256U, 0xbcdffc86bcc0ab2dU, 0x3c992273bd2e23c9U,
  0xbdb662f13cd41252U, 0xbda20a5f3cf3c943U, 0xbd3083363d315bbeU, 0xbcf754c1bd7169a5U,
  0xbcec0fe4bd352b29U, 0xbd60a55cbd92df38U, 0xbdb2239abdb6cadfU, 0xbd75ce62bd52ff0dU,
  0xbd5a5ff73d6215dcU, 0x3d7dc39bbd9c161cU, 0xbd019313bd3597e2U, 0x39f888a5bd8e814fU,
  0xbd9bb90f3d7576aaU, 0x3cb1ceb9bdb80b63U, 0xbc1c4ae5bd8ea863U, 0xbd599a6cbd6ea9c2U,
  0xbdb040d9bd914d62U, 0xbdb82dcfbd15b412U, 0x3cc17a9ebd231fe5U, 0xbcd730083d47cb2eU,
  0x3c855010bdae0731U, 0xbd40e844bd63f9ebU, 0xbd2807f4bcbbffbbU, 0xbd9a0742bd8f98b8U,
  0x3d5f2fbabd4d085bU, 0xbd9c19debb686f28U, 0xbcad6dd2bd4b624cU, 0xbd1bc6a03d29b3f7U,
  0xbc236aa73d4ed0fbU, 0x3d12c8ddbdd75133U, 0xbd607185bd371667U, 0xbd2137c4bcd20e2cU,
  0xbd886b383d6a2ad0U, 0x3cbac599bd929adcU, 0xbda09ed5bd656886U, 0xbd593ce2bda428e5U,
  0xbdad94183d6d5538U, 0xbc63d20fbd26f32fU, 0x3d0742d13d003bacU, 0xbcb97a223d584279U,
  0x3c876a46bd979cd4U, 0x3ce65b8ebd37bd34U, 0x3baccdce3d319967U, 0xbccee5ccbd997644U,
  0xbd957944bd13d0efU, 0xbdb14981bd92d23dU, 0xbcfebee1bd07f651U, 0x3c22a1c2bdd7c9d7U,
  0x3c4954f0bdaa874dU, 0xbdab82e43d18df8cU, 0xbd67bbc7bd99bba2U, 0xbc672c1f3d5254efU,
  0x3d14191e3d9077feU, 0x3ca6225bbcb2aa7dU, 0xbd91da543d259746U, 0xbb30296d3d3ade17U,
  0xbdb883933ab11396U, 0x3d82129d3cff39a1U, 0x3d8ee8fa3d85e178U, 0x3d3aadb1bb828b74U,
  0xbc10e42c3d73299bU, 0x3d5c4d57392ecbdfU, 0xbd0ac1f1bbcfae22U, 0x3d5689943d002e65U,
  0x3b9bdeadbcd52f18U, 0xbd60caf2bc777aabU, 0xbd8906a13bebe199U, 0xbcddf9d7bcc0e765U,
  0xbd7f3fccbd3dc1adU, 0x3d46448d3c5928e6U, 0xbd9cec88bd613b06U, 0x3cb85a31bd9a8bd8U,
  0xbcea966fbb8975d2U, 0xbdb38d9c3cc516aeU, 0x3d9506533c229db5U, 0x3d6920a63cf106d0U,
  0x3b5c335abaaac8b9U, 0xbc876d853bdd382fU, 0xbd6fee25bd006adfU, 0xbd007ecfbc9b6286U,
  0xbd6924db3ce4c438U, 0xbd5b7eaf3cd57659U, 0xbb8b0f76bd7e28d9U, 0xbdc9a6853d116863U,
  0xbd85a2a7bd559e7cU, 0x3d2cf911bd9dc5e3U, 0xbd2f4eae3d1e467aU, 0x3d481e67bd09202cU,
  0x3d089ab1bbf81be8U, 0xbd5e61cfbc3cc69bU, 0x3ca6af92bda4f5cdU, 0x3ce61398bd4dc761U,
  0xbcc4ef17bd46a857U, 0xbdda8cf7bc688f27U, 0xbdbb76ffbd98de33U, 0x3d4438ccbde39884U,
  0xbda50e56bd886332U, 0xbd3f638fbcfc788bU, 0xbd3a2f75bdc13995U, 0xb9f2c5f23d9243fcU,
  0x3cdf8f69bdd026ebU, 0x3cd024f13d8eb744U, 0xbd9000d13d307c1cU, 0x3d3afd25bcfb46a3U,
  0xbd19a1803bb2b354U, 0xbb3c1fabbd4272acU, 0xbdac208dbde80fa1U, 0x3d3d0584bd86c990U,
  0xbd530a313d12ec8dU, 0xbd35013ab9c02187U, 0xbda157ab3cb4877bU, 0x3d38e3353ac23b22U,
  0x3d010675bda8bb4cU, 0xbbd7985fbb44e53bU, 0x3c3a621ebcc5a5e5U, 0x3d5f478bbdbd2048U,
  0xbd792372bd3bc5c2U, 0xbd26a7d63d7cce32U, 0x3d78460bbd5a0980U, 0x3cb6b960392c21b9U,
  0x3c0c6126bc582500U, 0xbd04b30fbd27c352U, 0x3cd6be4fbdd3f420U, 0x3c408dee3d496637U,
  0x3c7233c33d12f49cU, 0xbc28e245bdb8a3f1U, 0x3c6bf9933d12d59fU, 0xbc01f1c3bd828303U,
  0xbeb7c018be784f42U, 0x3e0f83d4bd3d8a5aU, 0xbe7fabd6be2a2fa5U, 0x3eba6baa3db21860U,
  0xbe478c74be52c2feU, 0xbdbaea933d5336b8U, 0x3cd6a55a3c84bdb7U, 0xbf16c6ea3e365dc5U,
  0x3e24c6163e05b81cU, 0xbe340d673ddf5715U, 0x3db50481beac59c7U, 0xbd891999bee23ea6U,
  0x3d9bf88f3e02eb7cU, 0x3e12dae03c3405ebU, 0xbe64d51ebf19ca64U, 0xbd8fb6f6be843b03U,
  0xbcbef32ebe2cbec2U, 0x3dc0f081bcc013bfU, 0x3dbdabd53c1af628U, 0x3e645c653e16d2cbU,
  0xbd8ba4c7bd426f36U, 0xbe46314f3c80c4e4U, 0xbdf5e6a73de70b38U, 0xbe9e59173d2e94b3U,
  0x3dc329f13e0ee622U, 0xbc830d4f3e291398U, 0x3c1c3119bde935d5U, 0xbe269c1fbe25de79U,
  0xbd3077ebbc8511c5U, 0x3da8235b3ca5317aU, 0xbd15ae1fbe2ef687U, 0xbdfa6cdbbdd580b6U,
  0xbde0d7bfbe8387e2U, 0xbd63087b3d9200a2U, 0x3ec57a743de20d01U, 0x3e7954f53df86e71U,
  0xbd8edc0c3dccbef8U, 0xbec12bee3bfd3659U, 0x3cfbdaea3eb57d79U, 0xbecb9d2e3dd5702cU,
  0x3d3b8d9f3de6c75eU, 0xbdaa00703eca7596U, 0x3df7fd493e3c7b3aU, 0xbe259eae3d9bf609U,
  0xbe3a0bb1bbd73482U, 0x3e32c3553eb5d2afU, 0xbdf12ad0be92bacdU, 0xbdddb88b3d8d19d8U,
  0xbe063900be642f2bU, 0x3efa088abd825a8cU, 0xbe96d896bdeffd11U, 0x3dfe9500bd6a754cU,
  0xbd93388f3e6b20d4U, 0xbc70ace1be2c41b6U, 0xbd880fe5be0ef64dU, 0xbe184b5a3e796024U,
  0x3e5ead75bd60e95dU, 0x3e27eebcbe585bb2U, 0xbd46bd8dbddbdeedU, 0xbdf670c6bd8924fdU,
  0xbcbad3783df03800U, 0x3df60842bde557bfU, 0xbd47ff08bdda4c91U, 0x3ce81db43e9491deU,
  0xbe378f8fbe2eb449U, 0x3dff0c36be206eaaU, 0xbe015688bd2f0f79U, 0xb9f15c703d0046cdU,
  0xbd6e02763a4093a4U, 0xbd7c101abdb309ccU, 0xbde4a1d0be1d042dU, 0xbdff74083d7f6842U,
  0x3daadfdfbd8a270bU, 0x3e1d6903bde002f2U, 0xbd39fd50bdda3fe7U, 0xbe8c9bbabde03f71U,
  0x3d4190afbddd9207U, 0x3de6a3f4be6e4c5fU, 0xbda32a05bd705f0fU, 0xbdb0eb413e5cae5fU,
  0xbe2df177be638660U, 0x3e2ef355bed26b35U, 0xbe3946ed3ccc48ccU, 0x3dd9e6713e13b35bU,
  0x3e2e60533e015b78U, 0xbda22fb33d9ff61cU, 0xbe2c5419be4866ecU, 0xbe00cb55be0a19f5U,
  0xbd7bdc4dbe022c98U, 0xba990f223df9f933U, 0x3dce51ee3d2fcfa6U, 0xbd48ebf2bd707559U,
  0xbc8f9ef9bec372adU, 0x3e76b6753e18f799U, 0x3e4e5b9dbe2d4805U, 0xbe7694d13e42e186U,
  0x3eb992df3e29dc59U, 0x3de77ad73e34e7e0U, 0x3e317249bea2365bU, 0x3a9c156fbe777fcfU,
  0xbe0c0931bca98522U, 0xbdfe11c1bea57a6bU, 0xbe1b67d23d1bdbb3U, 0x3e94a0d0bdcaf901U,
  0x3d1d5f4c3b23f9f2U, 0x3e262b2cbe48ef72U, 0xbe59b06a3dae5473U, 0x3dc363483dec0a76U,
  0x3b6fc2f93db0e957U, 0xbdbf7ed0bebc2398U, 0xbd9178053e0e3353U, 0x3decdcbe3e01007dU,
  0x3e0b1bc33e120127U, 0x3d53f49c3dc891a7U, 0x3db4548b3ca85077U, 0xbe31e458bc026831U,
  0x3d6be9dbbc6ce71eU, 0x3cc31ef6bca65487U, 0xbd2884263d226cceU, 0x3da8f352bd97ae00U,
  0x3d98f6c5bc76875bU, 0x3daf1831be70b6c8U, 0xbb3bd933bd47ac65U, 0xbc90b8d23dd10c65U,
  0x3d950e09bd87af7fU, 0xba890823be76e3d3U, 0x3da295623d14637eU, 0x3dc2b5ee3e3cca40U,
  0x3ea155763e28f895U, 0xbe4b54753d40e2c7U, 0xbc55d75d3d87617fU, 0xbd8fa3a93db101d4U,
  0x3dfe4665be9510a3U, 0xbc4ec9eb3d324886U, 0x3e044dbbbcf1d6a2U, 0x3e0def89be95198dU,
  0x3dd534e0bdb5250aU, 0x3986c985be698ee8U, 0xbd7d023ebe232cadU, 0x3dabe493be1d30e8U,
  0x3e09d611bd03197bU, 0xbe97be05be63ca6bU, 0x3e2572aa3e5e211bU, 0x3e3914e5bcddc206U,
  0x3de1184c3c66ff4eU, 0xbd2f84653e19514bU, 0x3e264b8d3dd6bb1dU, 0x3bbf3d7bbe004a66U,
  0xbd7eca1c3d9e86dfU, 0xbd8138c73cdd598fU, 0x3d8ca3adbc73f0d1U, 0x3d402d2ebe4d5c8dU,
  0x3d838e01bde3c668U, 0xbd381c9ebd562480U, 0x3d8d4e223d8d26f3U, 0xbc89d18a3e15a3aeU,
  0xbd897d47bd07d657U, 0xbe4879f3bdfb3539U, 0x3dd2fa0e3d3f74cfU, 0x3e5323a03d0ee525U,
  0x3dd26b973de6c788U, 0xbe4a6379bdab6591U, 0xbdf36d353e1921f8U, 0xbdcdc5fc3bc47a09U,
  0x3d833997bdccf6a5U, 0x3cee8d643df03e0aU, 0xbd60a63cbe9f5e04U, 0xbcfce1c0be7f33e1U,
  0x3c11e4dabde232f9U, 0xbd22e864bdd8a15bU, 0x3d9b243bbe07a1e8U, 0xbccdf3d2bde1035aU,
  0xbda58d0fbd939b92U, 0xbe5ea2e0bd486c47U, 0x3db1508ebdf91fb5U, 0xbd7dac603d5a0f42U,
  0xbdc21ac93cda23daU, 0xbe1bfb5fbe0dda06U, 0xbe8e518d3e56bb63U, 0xbc37dbb3bd8a1aecU,
  0x3d0a046dbcebd383U, 0xbd43bebe3cf2c1cbU, 0xbdcc9323bf0159dfU, 0xbe5624c2bd32c270U,
  0x3ccbb64cbca927e4U, 0xbe2b7a3bbda851b6U, 0x3df38e30bd2536c3U, 0x3d91afbfbe07a682U,
  0x3e03fe84bd6282d0U, 0xbde0b6a3bddaaf9eU, 0x3e3b5fc5bdfffafaU, 0xbc941cabbd7be65bU,
  0x3d8175a1be38542eU, 0xbe527f293e9d2b20U, 0x3e845fba3e4fc62bU, 0x3e53c2173db55608U,
  0x3d7033bb3d84c666U, 0xbe099c863ced504bU, 0x3e0a95a53e8881d9U, 0xbdb159853c7c6f56U,
  0x3dded993be0e4f60U, 0x3d69b4c13e2d8da5U, 0x3dc9d81a3de9d860U, 0xbd919b7f3e23f93bU,
  0xbe333cfbbd8be804U, 0xbd67388d3ea03478U, 0x3e4111b93d03d8a8U, 0x3c9ea20abdac59b9U,
  0x3e6a6ff53e4d6d9dU, 0xbe13e86c3eab88abU, 0x3ec3e5c53caa3eb3U, 0xbdb0d93e3d9d6a4eU,
  0xbe054e84bd2b9a4eU, 0xbd6da7f63ddeb7b4U, 0xbdef33093e90f6fbU, 0x3e023d83bdeb72f0U,
  0xbd910554be62a9bdU, 0x3e686a8fbdb9e3a4U, 0x3e42103d3e1613e7U, 0x3e11fbb83dc1c77dU,
  0xbe11be5bbd97d271U, 0xbe9989553dfc5217U, 0x39c2145c3da92641U, 0x3d80134fbdebfca5U,
  0x3d2099fa3dec1c04U, 0xbd7bc812bd3ede23U, 0xbe804843be0abc69U, 0xbe0078d33d9a88ceU,
  0xbe2f13eebe4a196cU, 0xbcbba7f2bd6c0e96U, 0xbe539090be429cedU, 0xbd19277cbd1562aaU,
  0xbd2d3ed4bd21ecb0U, 0xbd3aec08be480d67U, 0x3dee300ebe46e52eU, 0x3b5f8e4ebe1ebc53U,
  0xbe013312bdfec9eeU, 0xbecb6907bdbedf70U, 0xbe7ac82ebdd8cf0dU, 0xbccffa95be58f773U,
  0xbe515b37bd5d0a36U, 0xbe85a712bf005a3cU, 0xbe90a9cfbc92d6bdU, 0xbe1488403c756655U,
  0x3c96438ebd9766c3U, 0xbd8aa4d03df0cc7bU, 0xbe087cc7be0d08f2U, 0xbec42686be831c3eU,
  0xbe96b7d1be51a846U, 0xbe954af53e243f38U, 0x3cb20c20bd02f49aU, 0xbe8b8ebdbde17ca0U,
  0xbe15eb97bf106701U, 0xbd40fe563d61d79eU, 0xbe1f3120be4155a8U, 0xbf00aac6be2c30c5U,
  0x3e3bce60bd907e3aU, 0xbe5cb2e63e4ed958U, 0x3edce2843d39e589U, 0xbcf901ea3dcddff9U,
  0xbe1b4be83cd00d42U, 0xbe3b15833d7c440dU, 0x3ea96d123f04318dU, 0xbda05a44bdd9b33cU,
  0xbeab7c41be2a8e9cU, 0xbdea39113e5d89c7U, 0x3c5219353e765b16U, 0x3c7fd7613e55455dU,
  0x3d56158ebe8305a1U, 0x3d9a92cf3eea0bfeU, 0x3d65e0303dea09d8U, 0xbec7c07dbe82860dU,
  0x3e12d78b3e03f243U, 0xbd08bf0e3e686c03U, 0x3ea3e8c7bc086db2U, 0xbe9305bfbdd2b89bU,
  0xbd8340903dfc8d6bU, 0xbc8e8e2f3c91241fU, 0xbdbd53a53e61c23eU, 0x3dc35346bdefd78cU,
  0xbeddb5c7bd8a765dU, 0x3dfe7466bda220c6U, 0xbe2bf89d3da4512cU, 0xbc83de373d74f6abU,
  0x3b299339bef75898U, 0xbdd1fc54bca040fcU, 0xbe15699a3d4db413U, 0xbe920151bdde9ad6U,
  0x3e48944f3d429c6cU, 0xbd3d493a3dcacf77U, 0x3d1f7149bde5e820U, 0xbde83fa3bdf61cf7U,
  0x3d93f865bd5e129aU, 0x3d39cd02be0f6d1fU, 0xbc908ef2be0ad0a5U, 0x3e73a29f3d56e598U,
  0x3d87a734bdafe241U, 0x3dd2ad46bd347a19U, 0xbdc3fc79be252eaaU, 0x3d725ef4bdd5cea9U,
  0x3c7c9cb3bd0521afU, 0xbdb1875bbdab2bd7U, 0xbda221b03d84f187U, 0xbc13e156bd5dd70dU,
  0xbc6f029fbd3e078dU, 0xbea496123e1aacb4U, 0xbc642d4dbdd6d615U, 0xbd8ffe09bd4d9010U,
  0xbdc7a0e9bdfcc431U, 0x3da582ff3d466286U, 0xbd2b1c4ebe0f4a70U, 0xbcc6e168bda60f2cU,
  0x3e14b4c6bc57318bU, 0xbd607c3e3d46b7e3U, 0x3d7297fbbea5c996U, 0x3abccca8be2e0bbbU,
  0x3d4d4769bcfd82a0U, 0xbe538243be64d495U, 0xbdce76513c932dceU, 0x3e23ce7ebdbb5cc8U,
  0xbe2ab764bc97ea15U, 0xbe97e2d13debc2a7U, 0x3e4e780abe0d1912U, 0x3da4ad29bd1e0862U,
  0xbdceb423bd8c200bU, 0x3d29bf30bcabe3faU, 0x3e04748c3cf864adU, 0xbd6edb863df0f9a2U,
  0x3e46a411bd4b0f5fU, 0xbd93cdfbbdcf2204U, 0x3df1fb6ebd69f5c8U, 0x3d6fdbf6bdb99063U,
  0x3d755f983d7975adU, 0xbd940878be5cd4ccU, 0xbd91edeabdf3c92fU, 0x3dc8d59dbd826064U,
  0x3cd3e82a3bf69a94U, 0xbe01f5e3bd8a7e62U, 0x3e1250313c41f445U, 0xbd1e4bf4bd5f74feU,
  0x3c51833dbc7d3412U, 0xbdf582c1bc456152U, 0x3cb934013d446926U, 0x3e01e0223cbdc654U,
  0xbe1f248abdbbfbbeU, 0x3db402383dc97cccU, 0xbde09852bd745e66U, 0xbbda98153d45f9b6U,
  0x3d35a2a7bd197ee4U, 0xbd385ce8ba54e104U, 0x3de3b4e03dec5c36U, 0xbb9d27373c8f09e4U,
  0xbe2f41a5bce4828eU, 0xbed328493d7e60ccU, 0xbd3e19a33c0aa591U, 0x3d7ad2bebc1ab417U,
  0x3ba2addabe01b53dU, 0x3d6b3e6ebba88057U, 0x3bba2ef1bd55f38aU, 0x3dcbbbeebd891266U,
  0x3c676bdf3da5509eU, 0xbc1acc563ac6cc8bU, 0xbc4d38d4be7c53bcU, 0x3d4ac356be8fcda0U,
  0xbc6300c6bdd8e937U, 0xbe11255ebc7f3634U, 0xbe0dca763d62b833U, 0xbc84e3b3bdbbbb4eU,
  0xbe80ec07bc9b1a9fU, 0xbe3e2edd3df93cedU, 0x3da011fcbd746353U, 0x3dd76acebb1b9b89U,
  0xba73f77a3b978cf4U, 0xbd307dea3ca27d37U, 0x3c503c0cb9d8ec3bU, 0xbdef0cbc3da9ea81U,
  0x3ac279283d0a88a1U, 0x3d94ef5c3cf3f9eeU, 0xbd011dbc3cc18a5fU, 0xbd9d76b1bdbb257cU,
  0xbdfd99383d47b766U, 0x3d17e391bb73acd9U, 0xbe4553f23ca6a494U, 0xbc305ee3bd710311U,
  0xbdbd3ef73cabecdfU, 0xbeb5aed0be341954U, 0xbe4d1ff93d877c4aU, 0xbd4cb42cbd82141cU,
  0x3cd12714bea78537U, 0x3cba7223bdad9735U, 0xbdd781183cb9e24dU, 0x3dce3c813e38ee98U,
  0xbdfb09a7be0b2edaU, 0x3d007d2e3dc86373U, 0x3c81cbc1bcbc5960U, 0xbd07cd1dbd8df2eaU,
  0xbdb5cb9abc474d73U, 0x3d17edca3d8b6d38U, 0x3e50533f3df5fa04U, 0xbdb11b21be0e2c58U,
  0xbe55f49bbdf9173dU, 0xbf18bdb9bdba0607U, 0xbeaf684dbdcf3b06U, 0xbd0fff01bdbf2a1fU,
  0xbd53dfafbecf303fU, 0x3d1bb36339f1ca12U, 0xbd32ec32be2855e8U, 0xbd8a3e52be5c205eU,
  0xbd5a63f43c56214aU, 0xbea68284bdd49bf8U, 0xbd408d0ebe84719dU, 0xbdd16e85becd244aU,
  0x3d648fabbc6b197aU, 0xbe69944bbcf30294U, 0x3d367891bd45a8fdU, 0xbd44556fbe8ad01bU,
  0xbec5f2f0bc464c1bU, 0xbf07dfafbdd1b9f1U, 0xbe9191ac3d19b02aU, 0x3db225313d5f3a6fU,
  0xbd008342be656e4aU, 0x3b7506643d70669eU, 0xbe388157be6c59dbU, 0xbe7d52ccbdd714dcU,
  0xbdb2901fbd832f75U, 0xbed9c055bcbdb5c6U, 0x3cc21187be04d677U, 0x3cb3e90abee799b6U,
  0xbda26d643c4b9961U, 0xbe2ff42ebd2598bfU, 0xbde16490be1bfde0U, 0x3b3f259fbef8143cU,
  0xbc669483bd8589a1U, 0xbdade6f9bc0e1b86U, 0xbc8e0213bd9efcb4U, 0xbd596011bd81f9fcU,
  0x3d481bedbdba01c2U, 0x3d1ee293bbc8a02bU, 0xbd5b1c5a3c8a6511U, 0xbd850334bd483df2U,
  0xbcfb9586bd7955a9U, 0x3d27833bbd435204U, 0xbd5272773b3cc662U, 0x3c8636c2bd578f75U,
  0x3c2e7f143d49cfeaU, 0xbced82ddbd67ee33U, 0xbd83dfcc3d144915U, 0x3d8e50b53bca22a4U,
  0x3d57abfe39b076fdU, 0xbd9933663d722a8dU, 0xbdae8c36bbcf4ef7U, 0xba41aff0bd9ae52fU,
  0x3d81bcb2bd9552abU, 0x3d13a7e03c4def11U, 0xbc865714bcec7709U, 0xbdca7cc0bd55d579U,
  0xbd9c922abdc290ecU, 0xbdb24cadbdb77335U, 0x3ce2b219bd991760U, 0xba8a0537bcdb9ebcU,
  0xbcdf5bcabd843796U, 0xbd85614e3d697415U, 0xbd0350b1bc2b4d98U, 0x3c29c50bbc5a1d90U,
  0x3d15c2ab3b84be05U, 0xbd1ee125bd59ab60U, 0xbd94bd8fbcf9d7d1U, 0x3d352eb5bcf153bcU,
  0xbdaabbf33d839acaU, 0x3cfac73cbd7c0270U, 0x3d505562ba145199U, 0xbd18a0f53da14c60U,
  0xbc1f41e6bd38ab2aU, 0xbc55f490bd0f27c3U, 0x3c93686d3c4a2c5fU, 0xbc781f0cbd903378U,
  0xbbb495103d10f33dU, 0xbd9a2d37bd8efafbU, 0x3d588de3bccb2d25U, 0xbdb41f1c3cbc30f8U,
  0xbb251c5abca2742eU, 0x3d6a53adbdb6f3ffU, 0x3d1708dfbd8e0630U, 0xbd05cbb23b86c5e9U,
  0x3c862e033d83b792U, 0xbd542e143c86cdd6U, 0x39d77a95bdaa9b94U, 0xbd165ffb3d03c201U,
  0x3ac110083ce49799U, 0xbd135f263c07ba60U, 0x3d1f0b6abca38fd0U, 0x3c778e38bcd659cbU,
  0xbbf4baeebd87ed9bU, 0x3d383208bcaa75adU, 0x3c8e6142bd675218U, 0x3d357238bd709559U,
  0xbcc370f3bd3c88beU, 0xbaebdeb23cbc7f31U, 0xbda75f6b3c71785cU, 0x3b52081ebd97b6d0U,
  0x3b44576abda86b49U, 0x3d157a34bd1b6b59U, 0xbd59ae3a3cdd4ae3U, 0x3d457d9abd9b6f12U,
  0xbcc73981bd331aedU, 0xbd4e3d1dbd58ace4U, 0xbd70fcd53cafdd1dU, 0x3d7e16d03d93b2f5U,
  0xbdb15b473d7b8857U, 0xbcb88c9dbdb6513aU, 0x3d5242f13ce95af2U, 0xbc37e1a53bea4a7bU,
  0xbb9703f63d6d9624U, 0xbd848e4fbdcdf005U, 0x3c276cabbd210a72U, 0xbd4a854a3cdc3af6U,
  0xbcaac40ebb9a2d0dU, 0xbd33cb28b722ffa8U, 0xbd53cab3bdb6e0aaU, 0x3a505044bbb1b5c9U,
  0xbc39db42bdd14636U, 0xbdbf1ea33d149e30U, 0x3d365346bd9d29caU, 0x3c1c14aabd80c63fU,
  0x3d5e426bbd6b21f7U, 0x3dc1faecbd679429U, 0xbda132e8bb46759fU, 0x3c9fcbd23d2abf7cU,
  0xbda768e2bc09f28dU, 0x3c852e433b821d88U, 0x3af3c10bbd68ae99U, 0xbd51b514bdace61dU,
  0xbcbe32ae3d1841b3U, 0xbdc99d123b48af47U, 0x3aa12461bd839c83U, 0xbdadf1dbbd9160a6U,
  0x3d80013ebd412818U, 0xbc35fe853d74feccU, 0xbd3014a6bcc5403dU, 0x3c70f399bd509a8cU,
  0x3d178fa23ce601adU, 0xbd17a0b23d2d9db6U, 0xbb9c84823c932fb5U, 0xbd2565dabc53444aU,
  0x3cf7ec3b3dbfa231U, 0x3d040a63bcde8becU, 0xbd8ac5e8bd59bb83U, 0xbd130b91bdd76f14U,
  0xbd0eb9593b89c3c0U, 0xbd653757bdfa5c37U, 0x3d07282f3d1878ceU, 0xbd65c26cba0ed665U,
  0xbd0a39053ce60619U, 0x3bc78e733d6876eeU, 0xbd934a423d4c7334U, 0xbd9e0463bcf34695U,
  0xbd7a8580bc141695U, 0xbdd77fa23d01652fU, 0xbd4d6ec7bd03eb79U, 0xbcff86c4bda6bd8bU,
  0x3cf4564cbd9f5eb1U, 0x3d01669e3d5a9ae6U, 0xbdc751cfbd9b0411U, 0xbd0f48883d1f94f4U,
  0x3cb309623cf1695cU, 0xbdf4dbc13d790c9dU, 0xbda4e36e3c03f8ceU, 0x3c108a21bd8522c0U,
  0xbbeb2ce4bdc2e724U, 0xbd8918a83b816c97U, 0xbdc65b443d875bc3U, 0xbd2e5d9fbd95fa1dU,
  0xbd802b07bd590c1fU, 0xbd93fd6f3c866ef1U, 0xbbef152cbd39fbe9U, 0x3d49e9ec3d52dd6aU,
  0xbc562034bd81e407U, 0xbbf45d7ebd5868ceU, 0xbbfdd0383bcc39bbU, 0x3c7b687b3d2fac57U,
  0xbd9a8fe43cd4036cU, 0xbcba0b19bda25e75U, 0x3d8675473d84e3a7U, 0x3c858106bcf7f478U,
  0x3d1fdcf33d7711c9U, 0xbdcf0f0fbc8c37c2U, 0x3cb6e93f3cb5d26cU, 0xbdbb8c233d11d933U,
  0xbc611b273d3526d3U, 0xbdc05a82bd724bbfU, 0xbcf11d283cd12b40U, 0xbd14e37abd82a111U,
  0x3cb75cd4bd17c860U, 0xbc1413ed3c382a94U, 0xbcdf82983d8a542eU, 0x3cb563c63d98acf0U,
  0xbcb2797c3cc874e6U, 0x3c0d225b3cea71a2U, 0x3d8023ae3c7f64a6U, 0xbd629c393bc793bcU,
  0xbb55ef9cbd77acdfU, 0x3c1c003dbd329eeaU, 0x3d7c431dbd72e8a5U, 0xbd98ff9abdaa64b5U,
  0x3d511710bda683fbU, 0xbd31e76bbdea8c23U, 0xbd40bfaa3c9ddaa9U, 0xbd6587a5bdbe913fU,
  0xbdab9c3e3d692532U, 0x3ccec6f6bd3ae454U, 0x3ce8ff293d29963dU, 0x3d72c843bd2490adU,
  0xbd628819bc9c50e2U, 0xbdb980953d3058a4U, 0xbd83355ebd59d520U, 0x3c9023a0bdaddea5U,
  0x3d3269423b9f2141U, 0xbd651702bd0393f8U, 0xbdba5cbb3c3f5964U, 0x3d91c641bcd982bcU,
  0xbc72d833bd5ed674U, 0xbd8bea14bd36170dU, 0x3d0e71d3bdded0f3U, 0x3d53c01cbd90f30bU,
  0x3b80fd443ce184c9U, 0xbd68b9a4bd35d0e8U, 0xbddc6c993cd7e4cdU, 0xbc2e489a3d6ba0c3U,
  0xbd42fca13c8cca65U, 0xbd8f0f17bdb8e0ccU, 0xbda1ab783d11ec33U, 0xbda65106bdc41f7fU,
  0x3d00a48e3d9317b8U, 0xbd8bb3a7bdaaa7e9U, 0xbd34d8143d097636U, 0xbd435421bd55e459U,
  0x3d7e92d5bd85e3e6U, 0x3d879904bd82a04dU, 0xbde1196d3cfe741fU, 0xbb136c1d3cbd9684U,
  0xbdc832dbbd9aebb9U, 0xbd5f4d87bcda518fU, 0xbd2678d5bb6361d7U, 0xbd05d29bbb2125d1U,
  0xbbd76a20bdc64303U, 0x3c91e48dbd8a3f23U, 0xbc8567c3bda6fb7cU, 0xbd80e48dbd1df94fU,
  0xbccc19963d999de0U, 0xbdd75d58bddfcb56U, 0xbd90bc8b3caafb59U, 0xbd3bc58b3c956596U,
  0x3d4903b1bd9b8492U, 0x3ca57916bd989c5dU, 0x3c2ebf06bd8e7660U, 0xbc493250bd3a412aU,
  0x3bc4598fbcb5ee8eU, 0xbca818dbbb4998acU, 0x3c67a176bca78e00U, 0xbd1c13c43d69e45cU,
  0xbc5e34ac3d2bdc29U, 0xbc485982bcafc3a9U, 0x3cd97e0cbd0a6dfcU, 0x3b962d3c3d52af3cU,
  0x3b869b33bd698e0dU, 0xbd74d3e9bcf4884eU, 0xbda7ea663bdf7b73U, 0xbca614e2bd246febU,
  0x3d0db7633d8fbf4aU, 0x3b9d662fbd0e06c9U, 0xbd29d61cbdf6b6bbU, 0xbd5688fc3d299622U,
  0x3c52a256bcdb3915U, 0x3d3684fdbc7fbf48U, 0x3c411059bdcfa0a6U, 0x3bb55b51bdb873d8U,
  0xbd0a72cebb801d10U, 0x3cfd3e073d13b8c1U, 0xbdb36cf0bdcb1bc4U, 0xbcfaeb04bd188b0dU,
  0x3cf686043d1c9ab1U, 0x3cf53a11bda8dfafU, 0xbdaa24c5bb5e97ebU, 0xbc6364c9bd0296cbU,
  0xbc65a1a9bc812e27U, 0xbce2db9c3cea186bU, 0xbc01b36dbd052c9eU, 0x3ad3b9f7bd149440U,
  0xbd47973e3d736a43U, 0x3d4601a1bcd0fbc2U, 0xbdf7b74c3d68c249U, 0x3d5c507d3ae44678U,
  0x3d48554b3d670c1fU, 0xbdb3eeaabd887a3fU, 0xbcacdb683d641868U, 0xbdecd313bddabbcfU,
  0xbdda8c2bbdb5742aU, 0xbcf5a4e1bda2d692U, 0x3c8f4110bde26f27U, 0x3d8c04dd3d41278bU,
  0xbd625290bdba04b3U, 0xbd254fdcbdb1f52aU, 0x3cb57976bd9542f1U, 0x3d3a6b2fbd0811c3U,
  0xbd454ba43d7b4ce8U, 0xbd02f88c3d6206e6U, 0x3a946a46bd68a39fU, 0xbd166831bd7e0ed0U,
  0x3d37994bbd498265U, 0xbd90eaa4bdbce0c9U, 0xbcb9ac5e3bab7d1dU, 0xbc0320693c8410faU,
  0x3cdd96bb3cf12208U, 0xbdc4f6153d18c9caU, 0x3d5999423b2f701cU, 0x3cf8ba313bc0e051U,
  0xbd9969a3bd17dbb8U, 0xbd0430cebd23f4c9U, 0xbcef2b75bdb08163U, 0xbd62a4d0bc2b7e2dU,
  0x3db1c530bc6cea3aU, 0xbcfd7eda3d5fff40U, 0xbd4caa64bd708308U, 0xbd8f10ebbd992bc6U,
  0xbb4ebdfb3c59dc99U, 0x3d35ef56bd1bafdbU, 0xbda827bcbc601a9eU, 0x3cba28e4bd052308U,
  0x3d38d26f3d714abdU, 0x3d6a082e3d72a48dU, 0x3d878497bcbdaff1U, 0x3cb3da54b96ee7c1U,
  0xbdb1f7bfbd87d57fU, 0xbd1b71c4bd92abcfU, 0xbd9ddcb8bbdeaccdU, 0xbd432343bde58f4aU,
  0xbbf3e73a3bdcca76U, 0xbd517d76bd6a7ca9U, 0x3c454fb13d390378U, 0x3ccf987abdb13c46U,
  0xbd671c743b7738c6U, 0xbda262533d08f3f9U, 0xbd229814bcea670fU, 0x3d72b1d9bd83ae9dU,
  0x3d3af9f93d968b22U, 0xbd456d113d00967aU, 0x3ced10f1bd8ba279U, 0x3d845c513d460d93U,
  0xbc8495813ca48c74U, 0xbdcf7381bd83ed31U, 0xbb82be9e3d83f230U, 0x3d8a8366bd9065e6U,
  0xbb79677fbd13083bU, 0x3bc46f79bdaae394U, 0x3ccb9672bde97a12U, 0xbdbbbcd53b492302U,
  0xbdc93084bdbd9414U, 0x3d061420bd6b9b9bU, 0x3d2b31ff3d2c7c78U, 0x3d1c342fbd699b88U,
  0xbbbe5fbabdae1952U, 0xbd74c5943d389502U, 0xbcd75eacbdb8d645U, 0xbd183d2bbd76d310U,
  0xbc9463a7bd3b85c6U, 0xbda4d74cbdce1a87U, 0xbc097336bc199930U, 0x3c9c861b3d07aed4U,
  0xbc9fff953d85e889U, 0xbdac420bbce90613U, 0x3d2b376ebd1d567bU, 0x3cba2fa9bcf9cb57U,
  0xbcedbbac3c12f2f2U, 0xbcc630b63d5b5f4dU, 0x3c72b9da3d5708aeU, 0xbccd3355bc8ffbc4U,
  0x3d4613c3bda0c9e0U, 0xbd76c84c3d697169U, 0xbd13e6c53b8db375U, 0xbda925863cb4e8caU,
  0x3d3706a53d1fd44bU, 0xbd2e6a78bd601273U, 0x3d9acd9abcd929e7U, 0x3cc503703d3e9afbU,
  0xbd84b3f63d456167U, 0xbcffe4233d299021U, 0x3b9e8383bdaa84bbU, 0x3c2b3a99bd88035fU,
  0x3c681dc1bd1570e4U, 0xbca7f36bb9c664dbU, 0x3d0e27ba3ccfa524U, 0x3c919d32bd97aef0U,
  0xbc2f93b03d532175U, 0xbd75bb3cbd9bdb57U, 0xbdc715e83d307dfdU, 0xbdb8c83e3cf54c15U,
  0xbdcd3fbebd9594d4U, 0xbcb270203cf62dd1U, 0xbd845374bd145e6cU, 0xbcbe35c73cd60ea5U,
  0xbd4c80573ce72cc6U, 0x3cb76a43bd6bb97fU, 0xbc94671ebde8e050U, 0xbc8463303c87b48eU,
  0xbd377069bbeecbf0U, 0xbd9b376bbde6a823U, 0xbd0345b73d7a45a7U, 0xbba326583d14842eU,
  0xbd7a37bdbd246e61U, 0x3d0982cfbd0a34faU, 0xbdc3d601bda3e633U, 0x3d8ae4c5bd00ee51U,
  0xbcddf84a3d3cddfeU, 0xbe089257bd8496feU, 0xbd8351353d4ebbffU, 0x3d2e3ef03d5f220bU,
  0xbdce5c4abdc1dfe5U, 0xbb7880913d24ad57U, 0xbd442988bdb38928U, 0x3d56f36ebdabd896U,
  0xbd9c2ffebd197da7U, 0x3c734be63cd5fd3bU, 0xbd6f85753d641ff3U, 0x3d3ffa41bd83c8baU,
  0x3d5a9d03bda25c92U, 0xbdc26ebdbd5502eeU, 0xbcd9750ebc903fd2U, 0x3d7c9d95bc329a6aU,
  0x3c1704973cd76b30U, 0xbdb5fd083cd7a202U, 0xbdb33002bc8bf45cU, 0x3d000f033d24fe96U,
  0xbda3ac99bd3f251eU, 0xbd98f03cbc9ed0daU, 0x3d781bdabc803817U, 0x3d13b8b6bdbb67dbU,
  0x3d45b0dcbd7b9d01U, 0xbc8c4c983cea2b63U, 0x3d706c48bd89d547U, 0xbd8027d03b7dc60dU,
  0xbd20da34bc9d2f89U, 0xbc3830c639b7c97dU, 0xbd028cf7bcd1f669U, 0xbc44b6cabbe30322U,
  0x3ceb1e473cb5a152U, 0x3d620e68bd8f914fU, 0xbd6dcd1fbb1bea84U, 0xbda61b02bc4f4bfcU,
  0x3d100887bc782e10U, 0xbd15a0873d113eb6U, 0xbd2b1ea8bcb849d3U, 0x39b318eb3d513559U,
  0xbc6b1d7dbccf7169U, 0xbd6332c1bd4a1923U, 0xbc67896cbd980a97U, 0x3d9ed2c7bde5621fU,
  0x3cb7eafdbcde7319U, 0xbdc8debebdd7f745U, 0xbdcb19f4bdc9193aU, 0x3c91bb35bdbb9da9U,
  0xbdd61d0fbd2938aaU, 0xbdc306b8bde6026dU, 0x3c7f3d7f3c5e674aU, 0xbdc4e8ad3cc05dfbU,
  0x3d9c1073bda17575U, 0x3c7507223ce4716fU, 0xbd83f4a93d6311f0U, 0x3c1cc6073b0e3c70U,
  0xbc81fb03bbe08abdU, 0x3d31d6393d4715aeU, 0x3c4279da3bcf48b6U, 0x3c5a09aabc51238cU,
  0xbd9d7be73d18fce1U, 0xbd739f55b6fa81c7U, 0xbd0da446bdd02b5fU, 0xbd983a3dbccc554bU,
  0x3d254ffcbd6bd766U, 0x3bee6f663c0ac6c4U, 0xbdc757e7bb898567U, 0x3d2f4cc9bc87343bU,
  0x3bd698813d2db761U, 0x3d62bf9fbce3aaa6U, 0x3d1672793cb6ff4dU, 0x3c39cbd5bd4e31b7U,
  0x3c9033ecbdaef5f1U, 0xbd3b01133a6fb255U, 0x3bd17f9dbd6b3c28U, 0xbdbd09f3bd5aa562U,
  0x3cd7a8e93d50d0afU, 0x3d16f8193c820a25U, 0xbdb045b2bdb13baeU, 0x3d89adf13ca57c1bU,
  0x3d28d51ebda6e7c5U, 0xbc3ce146bd55226aU, 0xbc0d652ebdcf6c01U, 0x3d16f1e63bebc775U,
  0xbc298d903bc227efU, 0xbc8316d23d549950U, 0xbbac1a1c3d0f4ccdU, 0xbc170e38bcdf247aU,
  0xbd640b9d3d9c7be7U, 0xbd12f4dd3cfb5f6fU, 0xbd434c7d3d1f1283U, 0xbd2d0733bc91e044U,
  0xbda0b0babca355abU, 0xbdc0f7c6bda5874aU, 0xbc97efafbcd18656U, 0xbccebe7dbd9bd4e9U,
  0xbd2a3ec03d090d2eU, 0xbdb4fcefbd007ce1U, 0xbc62fa183d280593U, 0xbba6430abaaa91d0U,
  0xbd6ea9da3cd766edU, 0x3ce99f06bd29059cU, 0xbd5f70a1bcec6724U, 0xbdc69156bd8bc829U,
  0xbccd874cbd1ac394U, 0xbdb263283b97af3cU, 0xbdb7ec833d79ebfbU, 0xbd90b45dbdc96bfeU,
  0xbc7f2647bd4dc1f0U, 0xbda4d3cfbd5c21f1U, 0x3d63834bbd9ab027U, 0xbd0c15b23d06cc80U,
  0xbd2bc780bda4bd00U, 0x3c2222463d4f5391U, 0xbd5d5fd43cba7d48U, 0x3d8128a4bd397a05U,
  0xbd33391f3d877d9aU, 0x3c9b60653d7368ffU, 0xbd66f15dbcbc1515U, 0x39a67525bc0ab1edU,
  0x3c9ea1d4bcdc16b4U, 0xbb4be290bd909022U, 0x3cf0e38b3baf0389U, 0xbd3a5c163d23eb27U,
  0xbd5ae1f1bd8190b3U, 0x3d1dec22bcc345d2U, 0xbb87fac9bcdfb239U, 0xbcb0469a3d17c0e6U,
  0xbc8d91c4bd87c192U, 0xbcca3319bc253746U, 0x3d507ae9bc97aad9U, 0xbdc39d6dbda0b3e2U,
  0x3d1c3f47bdc0a4c6U, 0xbd811cca3d7f0589U, 0xbd9c7893bca4a5b1U, 0xbb8690853b27bdddU,
  0xbc2acaaa3b56618eU, 0xbd34e6bd3d3795f1U, 0xbda26b0dbdb9ba36U, 0x3c9dd194bc3eb85dU,
  0xbdbd176f3d62fe07U, 0xbdac7014bd37b9f0U, 0x3cd54846bd56957dU, 0xbc77ff18bd825584U,
  0x3c5aad12bd0db7b6U, 0x3c5a9f1ebdd8c27fU, 0xbdb999bc3d169eecU, 0xbcc91df4bd98f08dU,
  0xbd63e588bba22927U, 0x3cb19e7fbc84b4b7U, 0xbd8e65c83cbdd9c1U, 0xbdc3f8383b0e53d4U,
  0x3d18c590bdab1b58U, 0x3d0a3e6dbd4862adU, 0x3d3922b7bd1ffeaeU, 0x3d0538a33c4359f3U,
  0xbba61e4ebd595a8aU, 0xbdc76d993d3e994bU, 0x3cfdcfa03cbe36eaU, 0x3ce6f9ddbd8d1108U,
  0xbc4fe80cbccfebd3U, 0xbcb2e6fb3c6429b0U, 0xbd96521dbdb8ffc6U, 0xbd91518ebc05d6e3U,
  0x3d5ade023d152844U, 0x3cde18f53d238081U, 0x3ac18e6d3ce9b14eU, 0x3d475cf0bdb3f01cU,
  0xbc6ba0ab3d4c0045U, 0xbd8b26593ae3dffdU, 0x3c4425a7bc2de464U, 0xbb450022bd2f0b86U,
  0xbdaa0d5fbcd2b2c2U, 0xbdb729a1bd98d30eU, 0x3d315fcf3cb02cc6U, 0xbd9c5dd73ccc5d65U,
  0xbcda2734bd17d97bU, 0xbd9444bbbd95c7fcU, 0xbd1257a83c17f8dfU, 0x3cec06543d008fbcU,
  0xbdb16f74bd420710U, 0x3cf70235bd4ae5ddU, 0xbb9e80aebd173425U, 0x3d3fe9cfbd1cfb57U,
  0x3d0295823b6ad9c9U, 0xbd7f19a73c544774U, 0xbd28259f3d9d52a2U, 0xbd56c92fbd88c925U,
  0xbd83a94abdc95413U, 0xbd17ab743d8edef9U, 0xbd4e32923cb163c0U, 0x3d7d2f933d10a6fdU,
  0x3d6fa0f9bd432806U, 0xbd3fff8b3d07123eU, 0xbdc6e3b13c7f4796U, 0xbd955935bcb79cf5U,
  0xbdc2cb173d54853bU, 0xbd84bc2fbc2c0c05U, 0x3d0ad5383d0533b5U, 0xbdab45c4bda9b6f1U,
  0xbd3afea83cbd9674U, 0xbd2bf5093c923030U, 0x3d18ee743d61f138U, 0xba6861e1bc4d67bbU,
  0x3d491297bd5135c4U, 0xbcf16186bd2f5cd9U, 0x3d2f8baa3d1e4c39U, 0x3d0263373c49a198U,
  0x3d5199b73d144d81U, 0xbd32c66ebdca0149U, 0xbdb36646bccd139eU, 0x3d733254bc0117c8U,
  0xbda377efbda47b20U, 0xbdc45ee6bd65b498U, 0xbd770cd6bd8ba762U, 0xbd36a53dbd8f3b5eU,
  0x3d7ca7403d60470dU, 0xbd4c222b3aae4d64U, 0xbd36d6e0bc856235U, 0xbda13822bdad301aU,
  0x3b3e9c76bcafeb71U, 0x3c93a64e3ca0aecfU, 0xbcb7bcb6bdb940c5U, 0x3cc33e7cbcf08018U,
  0xbda44c1d3d702481U, 0xbd947b2e3c65630aU, 0x3c2d6c0fbd184749U, 0x3b2a88ac3ca3f9b3U,
  0xbd47cc223d99732fU, 0x3d0175f03d8b93d0U, 0xbcde31adbddf0917U, 0xbc93d860bd94986bU,
  0xbddc4e2e3a12263fU, 0x3ccb03babd5ceef0U, 0xbdb77ac53d2c8241U, 0x3cc8fb3b3d51936eU,
  0x3d6f4b313ce50727U, 0x3c89e870bccec7acU, 0x3affd85b3d2124d6U, 0xbd8d63cb3d316348U,
  0xbc90fb72bdabb44dU, 0x3c6ac376bd9fc6bcU, 0x3d573ac93c96cafbU, 0x3d72eef6bd2a099cU,
  0x3d506a143c8d3a1eU, 0xbd9912b2bd08d2f1U, 0x3d722ac13d3d992dU, 0x3d6a06d2bd03ea03U,
  0xbdb042393cfa6995U, 0x3c57c5d7bd3c80f0U, 0x3d4e0e26bda29d2cU, 0x3c6b9e2ebcb15e1cU,
  0x3c8f30c63c646c2cU, 0xbab8307f3c9ba193U, 0xbdb97ab4bda495c2U, 0xbda1b329bd09c78cU,
  0x3d001b353d459c0dU, 0xbcd22c1dbd0d7454U, 0xbcbf7486bd2b2633U, 0xbd7f8b773d473d1eU,
  0x3d90072f3d15f18bU, 0x3cd3f8afbdbf1c3eU, 0x3c91fa0bbd35c10eU, 0xbbfa270bbd11879aU,
  0x3b1ec0bfbd79e07cU, 0xbda5a313bbafff87U, 0xbd839f44bc248626U, 0xbd5b035c3d7c4531U,
  0xbc2fe3d0bd696611U, 0x3d941759bccbdf17U, 0x3cbb58e3bda0a235U, 0xbb7dd6cdbd47157bU,
  0xbd8ed81d3d76ad64U, 0xbda2b31f3d83414fU, 0x3d7eda45bc8d3dcdU, 0xbd18536cbd33b881U,
  0xbc133debbcf9ce46U, 0x3d6651c8bdbdf975U, 0x3ca2211abce7de13U, 0x3d7dc74c3d32f324U,
  0xbd6aae72bd9e8e94U, 0xbdf10b28bd4642f6U, 0xbd8c0f3bbda2e5feU, 0xbcc00bfcbd395d48U,
  0xbdd1ef773d5ed463U, 0x3cf7b249bd67a12bU, 0xbd821e03bd105e3fU, 0xbd552f42bc037d76U,
  0xbc368433bc089e71U, 0x3b025388bd21ea09U, 0xbcbcfa00bd904a9cU, 0xbd478ef1bd3388fcU,
  0x3d29e535bd3d2c7cU, 0xbd8e28d63d07b96bU, 0x3c7a7e82bc66659aU, 0x3cf665423d18559fU,
  0xbd2275933ce1c127U, 0x3ce60d0a3c981467U, 0xbdbbdda23d3a43fcU, 0x3d3e7ab53ba0dc4eU,
  0xbdb7e006bc1ac490U, 0xbdba404dbdb2dd01U, 0xbd8818c43ce4a150U, 0xbd9a62593d282f58U,
  0x3c085e523d5fe515U, 0xbdc8687b3bbce17aU, 0xbc1a7d6ebc844129U, 0x3cdd4bcbbc1a55faU,
  0x3ca13c40bd86336bU, 0xbd94b456bcf29693U, 0xbda34535bc63109cU, 0xbd4eaca43d08e25cU,
  0x3d0dd2bebd8b8bffU, 0xbca55d5bbd45ca92U, 0xbdb52067bd3026c2U, 0xbd85e4b7bce70cc7U,
  0xbd849f2a3cd0c673U, 0x3d1e5c50bd22f98bU, 0xbd9c5041bd0a571eU, 0x3d5f11e43d76fbe6U,
  0xbd9937d13d779201U, 0x3d0a39433cd9cb16U, 0xbcfc3b94bd5904f0U, 0xbd4efc683cc2f418U,
  0x3ba547d0bcce3523U, 0xbdab2a36bd973b2aU, 0xbdb44adfbd9481d4U, 0x3d60cf10bda0d78fU,
  0x3d1ecb533c4fb243U, 0x3c74beb93ce9c7f2U, 0xbd87a6e63c0bb324U, 0xbd4d1b2fbd40ef29U,
  0xbcff728ebd5529d0U, 0xbd55572a3c01513dU, 0x3d7f24733c851657U, 0xbd9b2698bd931390U,
  0x3bdb992fbca88121U, 0x3d609931bd3b4254U, 0xbdba7024bcb02fb6U, 0xbd81283d3caa997eU,
  0xbec004a4be8c375dU, 0x3c678c23bdd353acU, 0xbe62e6b63e33b64cU, 0xbda6d635bc8c4aadU,
  0x3ee0bd4abdc585ddU, 0xbd2529353cab8fcfU, 0x3ec06ce6bd6ad51eU, 0xbe88eba4bd6d74b0U,
  0x3cfc37b2bd31e74aU, 0xbe1074f4be854ad9U, 0x3e16e351bf15fae7U, 0xbe0a3c64be8fee25U,
  0x3dccaac13e366afbU, 0xbcb94759bf03ffd8U, 0x3e4d1d4bbe2a99e9U, 0xbcc3e7523db403d4U,
  0xbe1ef80fbdf3e31cU, 0x3e4ee91c3b9e8051U, 0xbd3dd4c33e3d583eU, 0x3e64b9edbd7be93dU,
  0x3dd3bc7f3ddfc154U, 0xbd31ca7abe19ac2cU, 0x3e8729113e47bdc1U, 0xbe6df53a3dc12633U,
  0xbd807ebfbccfd5ebU, 0xbd2ee9ebbed2bce4U, 0x3c22ca70bebafb23U, 0xbccd64bfbba47d89U,
  0xbdc6cffc3e3e2c23U, 0x3cf91f46bf14bebdU, 0xbe969f76be332a46U, 0xbc9d2d93bae417e3U,
  0xbc4088503e18712fU, 0x3dedc7ca3db80c5cU, 0x3d509c72beb5d6d6U, 0x3d2749c7bdd6ca51U,
  0xbe8d9a6cbde964c8U, 0xbe07304ebef9cad5U, 0x3dbc76fcbdb65907U, 0xbe1ac6ce3dfe5273U,
  0xbdc632debdfcf9acU, 0x3dff1169bead80b7U, 0xbe61c544bec92b77U, 0x3ab83bd43d5b7334U,
  0xbe50d08d3dc7bef6U, 0xbdf01017bef366b3U, 0xbece49c9bdcad37aU, 0xbdb76cfebe01c304U,
  0xbce314fabc8ce981U, 0x3ea764bb3e034b1eU, 0x3c36b5683e18c683U, 0x3e09aa633d3b421aU,
  0x3dfdff453dc874a2U, 0xbe83dbccbdca31a9U, 0xbd2e77263de5802aU, 0xbde09f973e7bf792U,
  0xbde93888bedc0e4eU, 0x3e17a67fbde8bcbaU, 0xbd5dabc5bbcfad36U, 0x3d4846bcbcdbaacaU,
  0xbd1644503e49e871U, 0x3e87003cbd956974U, 0x3e643de0bd5bdcf4U, 0x3c7ea9d63ef23f37U,
  0x3dfb03363cfa6eacU, 0x3e7b1b613cd27f40U, 0x3d06f3e53e8e1b72U, 0x3e067619bd45076dU,
  0x3e3a15d63da70397U, 0xbe7a71c0bd9844c8U, 0x3db9d16bbcbd5afeU, 0x3dd859ee3dfd711fU,
  0xbe17f8d4be93cc23U, 0x3ddf077abcfc3eafU, 0xbc97e9c13d13da85U, 0xbd5dc74e3d9c7e60U,
  0x3e624848bd21ef39U, 0x3e1312753d5f5ce1U, 0x3e8d92a63d72d540U, 0xbcd2d9aa3ebd80f4U,
  0x3d9bb3fbbdce74c9U, 0x3e520f9cbd3acc4aU, 0x3e54b5b5be0bb21fU, 0xbe16948c3d91bb66U,
  0xbe8668abbcac79b7U, 0xbe422722be48fa69U, 0xbdd0be0c3e78c7beU, 0x3d4c0b5fbaab30e8U,
  0xbe4cb26abedc6b04U, 0x3d8f50c33e580f99U, 0xbe3b9cba3e475fbfU, 0xbd22ad303dcab3e8U,
  0xbdca39e0be36f10cU, 0x3d7ddd2c3def76faU, 0xbe4ad9d73d9f451aU, 0xbe5bb0d03e3120e7U,
  0x3e06adc63de53e4cU, 0x3d89d5c5be1f59faU, 0xbde0ce143c382d54U, 0xbdd4bfccbc1a0be8U,
  0x3dbf3755bd7ee278U, 0xbe32a551be0cdabfU, 0x3e0fe8d5bd5c3feaU, 0x3e7d202bbd620420U,
  0xbdb9cce3bbdaea4bU, 0x3dfc27fcbd663b32U, 0xbde0e0a33d7dd631U, 0x3d0b3aef3db3d230U,
  0x3dbbe1683c5bd068U, 0x3c838525bc97218fU, 0x3e001e873e9557a2U, 0x3d57987d3d58e58bU,
  0xbe00f3583e364d3fU, 0x3c2a14e6be901852U, 0xbdb8f529bd30f14fU, 0xbe917674be237faaU,
  0x3d229998bd8c6571U, 0x3d1e83cfbe61be72U, 0x3e0129e5bdb6d109U, 0x3d07a7a1bd4b48b2U,
  0xbd85a23d3c581e72U, 0xbdc7e7873dc5d6b0U, 0xbdefe2793c941112U, 0x3ca3b273bcf537daU,
  0x3e0ff733be9b4783U, 0xbdaa02cdbc91770bU, 0xbdbdc7423e25de2bU, 0xbe3d1231be0d1a53U,
  0xbe03e534bde52066U, 0x3dbe4287bf071b16U, 0xbe0f39b4be0b5721U, 0xbead9fef3e2174b5U,
  0xbdb38464bd997074U, 0x3cb9dc2cbe7719b7U, 0xbd8095503daa8cc5U, 0xbd278991be0f2fa6U,
  0xbe051d2b3dabb446U, 0xbe31778b3e06b8deU, 0xbe1df0573d97236cU, 0xbe1504adbdb4ebc6U,
  0x3e14ba91bec2bf40U, 0xbca0dbb8bc82814dU, 0xbe36893cbc820728U, 0xbdf38efebdd367b1U,
  0xbbbf1532bd62be87U, 0xbe55b18cbd06331fU, 0x3d9ba237be8bdea6U, 0xbe222cbfbdf82df3U,
  0xbec8c054bdc7e393U, 0xbe3c4ccbbeaec98dU, 0x3d5d2a353e097855U, 0xbd0fdb35be05fd43U,
  0x3e0100433d3543fdU, 0xbe469dd63d5ea97bU, 0xbe7a723ebd2dc7d6U, 0x3ca9beae3d2a1fcaU,
  0xbe9ea0bcbdfb3dedU, 0xbcef9cf5bd100f98U, 0xbe929827bdcb24c5U, 0x3d92e3aabe4f2a20U,
  0xbd89322fbef628eaU, 0x3e4b1e93bcf8fa42U, 0xbe04b346bc2bf6feU, 0x3e0add84be340c37U,
  0x3e0d649b3d7c8a2fU, 0xbe4da1e9bdb33d12U, 0xbe2a03683d17d54bU, 0xbdd7eb2b3e643a58U,
  0x3daab2d7bd144460U, 0xbcde7f973dc84b26U, 0xbdb52d55bd21b581U, 0xbdee248b3ba7d060U,
  0xbe5e7d5a3bd91952U, 0x3e2ffe22bd11c3faU, 0x3d3515aabe3c5d6aU, 0xbe1a37333dcc2d26U,
  0xbdb2f475be5b8fa7U, 0x3e3e4130be806977U, 0xbd69f5493ebec9d5U, 0x3e2216c03d4d3a8bU,
  0x3e6c96563e109568U, 0xbe89b56e3e711778U, 0x3d44db5ebc61138cU, 0x3d82bcf53c52b8f6U,
  0x3d46436d3d57c558U, 0x3e1126e83ddfa6a8U, 0x3e47c5653e4a0ec1U, 0xbda2a952bdd752dbU,
  0x3d291acb3d4034cbU, 0x3e2d35cebd70a1f8U, 0x3eb69ecbbd9ffa2cU, 0xbd8b298d3eaea4cbU,
  0x3d02decabe00c4b4U, 0x3e830e2bbd66eabeU, 0xbd882c623ba78419U, 0xbc904dc7bea01805U,
  0xbd32d8503dddff6aU, 0xbe621f76be85d97eU, 0xbdc1e18ebd18f1b8U, 0xbc3c91253e038b73U,
  0xbe4a7fa3be2ec1d2U, 0x3da84410bd1c1703U, 0xbe0852e4bda9bdacU, 0xbdca32f23dafd636U,
  0xbc383a32bd3ddca4U, 0x3dad60fdbe8244cbU, 0x39eeabdebcb33199U, 0xbdcc47bd3e845562U,
  0xbd60f1afbe1804a1U, 0x3e8d5f90be9731f2U, 0xbe317aa63de780e1U, 0x3d028d10bed9360dU,
  0x3e89bb48bdb8f534U, 0x3d3f85f0bd99b780U, 0x3c9d0d90be122a66U, 0x3dcdf5553cbbe87fU,
  0xbe3a2ab1be095fc8U, 0x3d1a1f4cbe50cafaU, 0xbddd6a163d37a041U, 0xbc2dd2b3bdb87660U,
  0x3dd90f503d23e421U, 0x3cc28e6ebe6a2a0dU, 0x3df0b9a63d14e5c7U, 0xbd8626b43e85e08cU,
  0xbd83cef0bdd9f233U, 0xbe9a9a3ebe931dafU, 0xbd8748743e006361U, 0xbeac4c7fbe257d3bU,
  0x3e3252eabe1b786dU, 0x3d8d62323dbc4da9U, 0x3c9a1b63bd564ab7U, 0x3d015e8abeac76ccU,
  0xbe6e743ebcb36f6fU, 0xbdc6c1a1be80e940U, 0x3d0d126c3d82e897U, 0xbcee23d1bdab3c71U,
  0x3e4a0b9cbe1960f1U, 0xbe989ea4beb14476U, 0x3c9e61d43d82870eU, 0xbdb537ebbdf5dcaeU,
  0x3d80865c3e0de19dU, 0x3d3a6c98bd706e20U, 0x3e2c33ca3de21a07U, 0xbdd9f669be1d71cdU,
  0x3e6c20f73ce15cb3U, 0xbd06c287bdb79f71U, 0xbb31389f3db2e1a1U, 0x3e54669abe377dc6U,
  0xbe81e84abd7a664eU, 0x3d222d45be141bdfU, 0xbe0279f03d9da2b2U, 0xbccb49233d3be935U,
  0x3da0cc6abdcf3a98U, 0xbe2fecc1be6cf088U, 0x3df28e293e68701dU, 0xbde144ec3e9be992U,
  0x3d94efdc3e1d7795U, 0xbe78fdf4be0b3362U, 0x3d3885e13dc85abdU, 0xbdea522fbd7718c4U,
  0x3e1221bbbc652578U, 0x3d40b2683c69aaffU, 0xbb65c28c3db23ae0U, 0x3db935b4bef1d9b4U,
  0xbe481cb8bdf9dcf7U, 0xbdbfa232bdfcc937U, 0x3c9d2d353db2fe1eU, 0x3e163f833d8e4ae9U,
  0x3d929434bd706b71U, 0xbe79f6ebbe1e4bd1U, 0x3d8e20c23db5eddbU, 0xbdd1bd033c242050U,
  0xbd8854493d5da5aaU, 0x3df4ecc7be65c241U, 0xbdc14c79bcd32794U, 0xbcc5cc29bd0f28abU,
  0x3d751ccfbdad4744U, 0x3e4b46173d282bc8U, 0xbd0da4b9be451ee1U, 0x3c9b98ecbe45c9e2U,
  0xbe1a032abd0bfeb4U, 0x3d4dbf94bdbd4fa8U, 0x3d109663be1852b3U, 0x3b8e8af3bd92d639U,
  0x3d8e50a83e4fb9e0U, 0xbda60165be2ff597U, 0xbd1b774bbd4f0ca1U, 0xbc0b76503c093e64U,
  0xbb950f2d3ca47052U, 0xbd065b903c21396cU, 0xbccc44bfbd1432dfU, 0xbd7f7aecbdc23d29U,
  0xbdea5dd83cbb254dU, 0x3c294333bdc16886U, 0x3bc2b290bd4013fbU, 0xbdaa0f3ebd8855faU,
  0x3ca548a9b9aaa57fU, 0xbdb72e2cbc097009U, 0xbd0c0746bd893be7U, 0xbdc5d63dbd4c8a42U,
  0xbd88965a3ca8d656U, 0xbd1bae413c9b6453U, 0xbc265d26bce5d684U, 0xbda96df6bdcae7f4U,
  0x3d6597d0bcf867baU, 0xbdca19953c79e291U, 0x3d57d610bdafdcd7U, 0xbd84c46dbd39c942U,
  0xbdf7ca2b3d49ca5cU, 0xbde34f7abd93885cU, 0x3c72aaa4bdb445a2U, 0x3cade05e3d46e1dfU,
  0xbd74d6eabd94a221U, 0xbda9e31abca21369U, 0x3cdf437e3cf5e581U, 0x3c87b696bda93790U,
  0xbcd0dec8bd870b96U, 0xbdaeadcabd657b40U, 0x3bc03efcbcce527bU, 0xba675c90bd9b7916U,
  0xbde0f7cabc18e10dU, 0xbdb4be07bb87927dU, 0x3d32a394bc78b004U, 0xbc54295abdbadd88U,
  0xbdca33c73cfe29d5U, 0xbd47079ebd761f16U, 0xbd443e0cbdd22507U, 0xbdec9c6ebdaebe6fU,
  0xbc0fb867bcb9150bU, 0xbcfac8203ae0c242U, 0xbcf5449ebd8642a0U, 0xbdb142733d785514U,
  0xbddf13a5bdacff52U, 0x3d27c1cb3d4f341dU, 0xbd37212cbdb07626U, 0x3c50d9f6bdd76377U,
  0xbe05d0bfbd98efeeU, 0x3d053b47bd95f4dbU, 0xbd07c4e5bca0e7d4U, 0xbd8f1933bd11804dU,
  0xbd970759bdba738eU, 0x3cc8c3a1bce04929U, 0xbdd666ecbd9890a7U, 0xbdab9d783d2482cdU,
  0x3d96a80cbddfc68aU, 0xbddad464bd2e97bcU, 0xbdd6f7cdbdbee4abU, 0xbdd77cdfbd39355aU,
  0xbdba19443d935c33U, 0xbd47b421bd884dfbU, 0xbde22329bdd52d4dU, 0xbcfa0bf6bdad2638U,
  0xbcbf9f48bcaea24aU, 0x3b78ab473c305c63U, 0xbcf77baabde7c122U, 0xbda7e1763b696705U,
  0xbdb8f14abd82856bU, 0xbd962fe23c5a86a6U, 0xbddfcc3abd53d7c2U, 0xbc9cf8ea3c174286U,
  0xbd81b24ebddb8c91U, 0xbd9b271ebd937705U, 0xbd212cbdbc3f95e2U, 0xbc6d2835bd0d5fccU,
  0x3ce708203d5a6b5bU, 0xbd7ec2483c9e2522U, 0xbddd12f33c1fa2f7U, 0x3d59c93cbdcc9e59U,
  0xbc03c42dba8c5d1aU, 0x3cec0763bca8a6bbU, 0xbd66deadbba47444U, 0x3b39b862bd19e4eeU,
  0x3cb98c123cf87295U, 0x3d48ef5d3ca554b1U, 0xbddc21b33c82670fU, 0xbd855f17bca0a740U,
  0x3c965116bde49b8fU, 0x3d071af2bdc8daadU, 0xbd5b4ac13d5a98dbU, 0x3d110c90bd63a08cU,
  0xbc52aee13d026aa3U, 0xbd2620733d0b61c3U, 0xbc797a0ebd99fad2U, 0x3c0aedcabda1b22dU,
  0xbda6d1c0bd88b31aU, 0xbbb3db8b3cc2d79dU, 0x3c6bc5663cbe3191U, 0xbd02747b3d88c13aU,
  0x3ca412acbcd82685U, 0xbdc24882bda868ebU, 0xbc50eb3cbc52bba3U, 0xbd2049c9bd505937U,
  0x3d535d2dbd5c64edU, 0xbdda62c6bd6591afU, 0x3cc552b0bd5a3f24U, 0x398de6d73cb8ddf5U,
  0x3d1759d8bd9d56b2U, 0xbdd1adf4bb961673U, 0xbdf0264dbd95b143U, 0xbb576780bd2d62dbU,
  0x3d088f0e3d58a6e7U, 0x3d1e02573db59fd6U, 0xbdae1fcf3d21e7beU, 0x3d8444a8bd6fd66aU,
  0x3d70641fbc3e85cdU, 0x3d45323ebce927d4U, 0xbd51e4fdbc5230cdU, 0x3ca1567f3d5ee8abU,
  0xbd862cc43c906032U, 0x3b6c11efbca71a96U, 0xbbd6e5de3b978495U, 0xbd980bc7bc9e8de1U,
  0xbc3cfa3abcd2c282U, 0x3c8e3fb53ba803e3U, 0x3d14caacbd2050a3U, 0xbdb601d7bcd0c64bU,
  0x3d5e7d8dbbe3c559U, 0xbd352488bd7700b4U, 0x3c5d34a73d8707f0U, 0xbd2ed3b53d19fe8bU,
  0x3d1551483cfe4952U, 0xbd2f087ebcc89a7dU, 0xbcc47b3cbdb5d1e3U, 0xbd695d823d80a68cU,
  0x3d619327bd86f033U, 0x3d858276bd0f6bf9U, 0x3cf560f23d2c78d8U, 0xbda6e45cbd3de365U,
  0xbcad0c493c78b8c9U, 0x3c189980bdaf5af2U, 0x3d431f90bc39335aU, 0xbc4264a1bdbe669cU,
  0x3cb03469bd5f57acU, 0xbda5af5cbc9716e4U, 0x3d2e14f7bdb27680U, 0xbbc1ffd33d13ae25U,
  0xbd22705d3ce15efbU, 0xbda6b758bde36543U, 0xbc813739bc4ba929U, 0xbd1f23c03ca3716bU,
  0xbc27f4403d77970cU, 0xbe0233fabd9925f7U, 0xbcf19f53bd8e8159U, 0x3d6136353d28b3dbU,
  0xbb2ef648bdc85865U, 0x3a655449bb8e0c44U, 0xbd14a5ddbd0b71adU, 0xbd13f676bd2e6a4bU,
  0xbd383560bd912e20U, 0xbd455668bd0e7412U, 0xbd8532bfbda6cf50U, 0x3d2ca2423c770d1bU,
  0x3ce77278bcfa928cU, 0xbdc715283ce8b1a2U, 0xbcbd6a34bdb8d862U, 0x3c7b5e93bdd405faU,
  0xbdbf11a3bddf16bbU, 0xbd88aab9bd851d7fU, 0x3d8a2d3cbcf35b9bU, 0xbd7ffa2fbd91650fU,
  0xbd42fb833d8f0866U, 0xbdab1f94bcbdf478U, 0xbddebbc9bd58ccf8U, 0xbd266334bddb59bcU,
  0xbd42fbbcbda71efdU, 0xbd6b45a4bc772547U, 0x3d137392bdadb13aU, 0x3c9c641dbd9109ddU,
  0x3d470b103a787b53U, 0xbd8ca45cbd582f73U, 0x3ce2276a3cd0ed2dU, 0xbd57e236bd7ccd83U,
  0xbde673cebdae87d3U, 0xbce778023d5b225cU, 0xbd9f65b33d2f7daaU, 0xbaacf95fbd1a9538U,
  0xbdacf3babdb4ad40U, 0x3c40adf3bd9012d0U, 0xbd8ffec5bd3cd154U, 0xbbf59faabd7b00bdU,
  0xbd45b0ebbd6c95b8U, 0xbd3c3e3bbc166251U, 0xbd4612b03c9f1d0cU, 0xbc9f751abd324015U,
  0x3d3369413d492016U, 0x3d392196bd8d8d60U, 0xbda77502bd15a390U, 0xbdbbcec7bd4c1512U,
  0xbd8cdf79bda62003U, 0x3b5b8406bdac1302U, 0xbcc339ac3cfe47e3U, 0xba747ed2bdadeaedU,
  0xbc822375bd7ea939U, 0xbca87ef3bd5b9eb6U, 0x3d0622933b451aa1U, 0xbdb4d6b8bd9b10baU,
  0xbac28aeeb950dfffU, 0x3da8591a3d134f21U, 0xbd81c5afbdb7c89cU, 0x3d37fcf6bd782c2bU,
  0xbd1e23413c23b717U, 0xbd5d421ebd8133edU, 0x3d18b0adbc4c1bf1U, 0x3d1fe6d0bd84d6fbU,
  0xbd99b6d83c7c1493U, 0x3b903826bd2c4607U, 0x3d0da9c1ba8401bdU, 0xbd843db2bd2579b7U,
  0xbd6f0fd3bcc02885U, 0xbc117226bdca7239U, 0x3d43cd71bc77a658U, 0xbbae2066baae13e0U,
  0xbdd9916fbd502e0eU, 0xbd97fbe03c5b753fU, 0xbdbb3ae2bb68e68dU, 0x3d790f9e3d73f5c6U,
  0xbd0c28533d8c16f0U, 0xbc6d4c903d2d65fcU, 0x3c4cfcd1bd0961dbU, 0xbdb735f2bd119d5aU,
  0x3bbe0f7b3cf48468U, 0xbc84f44c3d6d927aU, 0xbc8eec8ebccc8aacU, 0xbdafed61ba08e9e0U,
  0xbda035e13d612bd0U, 0x3cba5724bd41693bU, 0x3d217638bb1740edU, 0x3d3d348f3d735e1cU,
  0xbd0e39a73d58c4a6U, 0x3c2a4dfd3d3d46c0U, 0xbc7c7696bd5f568dU, 0xbdaadfc8bd945be2U,
  0xbd826d29bd81b345U, 0x3d139088bd93b22bU, 0xbd9b85eb3caa7e90U, 0xbce4d149bdde0decU,
  0xbdc61bdb3d410319U, 0x3d17abfd3bc7f859U, 0x3d533379bd6d8737U, 0x3d071b0dbd5d364fU,
  0xbdba4ec2bca92767U, 0xbd53c4e13cc13fe6U, 0xbda04fcc3d43699eU, 0x3c381ee6bc9c279fU,
  0xbdb1d191bd57bc79U, 0xbd455a243c8eb472U, 0xbdd288d3bd7b7221U, 0x3d53a570bbcf82e4U,
  0x3c93e9ebbd79f79aU, 0xbc0b7b01bd78f591U, 0xbd087e5d3d802adaU, 0xbdee665cbd62ddacU,
  0x3a4e4a5abdb03c6dU, 0xbc0710c53d67f88aU, 0xbd1e6d0e3c6c9572U, 0xbda0d2cfbd3bcf64U,
  0xbc29245abd8d41a6U, 0x3a505e533d1cc291U, 0x3d5d665dbde8af37U, 0x3cc1dddbbb9c9384U,
  0x3d8a9a803d21e610U, 0xba0f6987bd59581eU, 0xbd9a78acbc679642U, 0xbd3bfb21bcb7a715U,
  0xbdd15c94bcbf9018U, 0xbda91c8c3aa209c7U, 0xbb764447bca59ba3U, 0xbda73c6cbda6d640U,
  0x3d8320223d0a6d19U, 0xbc3be254bcd1ec74U, 0x3c8d351ebd898f37U, 0x3d73a259bd3593d2U,
  0x3d58d6c23c16c6d9U, 0xbd626739bc7b644dU, 0xbdb63548bd913280U, 0xbcda59eebd8cbb54U,
  0xbcb21faabc09cefdU, 0xbe240745bd86dec4U, 0xbdd23a99be957e9bU, 0xbe176dcd3ebbff06U,
  0xbbfc6fdbbd50fa2dU, 0x3de49643bb5d7a1eU, 0xbe280d573dd60a14U, 0x3df98800bd87eb96U,
  0xbe394add3d62c9eaU, 0xbe1e1d71bba59681U, 0x3c933a343cee37faU, 0x3c811a553c8aa383U,
  0x3e45ff47bd812350U, 0xbd7ab489bd777cbfU, 0xbe1a85ef3e37c71eU, 0x3dbfae3cbe1a505aU,
  0xbe6cf6afbe8ce960U, 0x3e8002f13d052a96U, 0xbd070ec0be88a098U, 0x3ce43abebdaa38b0U,
  0xbe6eb1023de11be8U, 0x3d745e6bbe7cdae9U, 0x3db000783c9fe94aU, 0xbe487cd23e63e74dU,
  0xbd1dc9a2be273bc5U, 0xbde96042bdae05a9U, 0xbccc126dbe0cbe1eU, 0xbe012963bc335512U,
  0xbe0cf5a53e5d265cU, 0x3e752882be20e283U, 0xbe390ecebd87a3b4U, 0xbdbd5fdc3e115d51U,
  0xbdf7ee06be404248U, 0x3e959a2dbbe921ebU, 0xbe40ed203e8001c7U, 0x3e61a3ebbabb644bU,
  0x3dde7f193e58b346U, 0xbe7c44a7be732117U, 0x3c681c4fbdcbf1b6U, 0xbe12811a3e9bb6ceU,
  0x3d9465cabe2f2814U, 0x3d7322573d224dfaU, 0xbd2706113e66d720U, 0xbcd84b923da34754U,
  0xbe1308593e6b460dU, 0x3edb744cbc991a59U, 0x3e64a3dcbe85abc2U, 0xbd9b820e3ec94ee6U,
  0xbddfbd48bde458cbU, 0x3da3ea1cbda4d5adU, 0xbd9918ddbe935801U, 0xbe50f3d23e09d618U,
  0xbeae539bbd341b71U, 0xbe316e57beaa7fa2U, 0xbebda5d33d52d029U, 0xbdb869953d9970a8U,
  0xbe77d7babdc67817U, 0xbe5fd896bd8a705cU, 0xbe3e560d3ce09583U, 0xbcd102db3cae74f2U,
  0xbd35da88bbc1956aU, 0x3e03f764bd2fa475U, 0xbea5184cbdc95a7fU, 0x3c8ec2abbe4e8c46U,
  0xbe38d032be81f422U, 0x3ec0eee6bb67d9c9U, 0xbe15b0d6bd46ccc5U, 0x3db7d675bedac530U,
  0x3e5605473e1f523bU, 0xbdf64080bebd6319U, 0xbe515bdabe16c00dU, 0xbd6d856f3e348d42U,
  0xbdd9947bbcf53c4aU, 0x3e30850bbe668b31U, 0xbddd9919bdc2300bU, 0xbcd55e0e3cab098dU,
  0x3dfbb86c3e7b2592U, 0x3e1973a6be45db68U, 0x3e7921fdbd30be8fU, 0xbe52aaed3e86f815U,
  0xbdb3ef4fbe24cdcdU, 0x3cc8182abe968b13U, 0xbe5c32b23e2e670aU, 0x3ddfc7cabe2dc7f3U,
  0x3e4de8e5bda2144dU, 0xbe186682bd8fb0a5U, 0x3d5ce030be0a9abcU, 0x3dd20c3e3da73988U,
  0xbe47b3ac3cf1385dU, 0x3d3ad5da3d1be68eU, 0x3d4932873e00670aU, 0xbdb193d33c6e13d7U,
  0x3dd3254dbe09ced8U, 0xbccb24e6be083d05U, 0x3da0a97b3d14b0d4U, 0xbe1721ee3e401683U,
  0x3d0cf0bbbd3c7d70U, 0x3e102e51bd9c37cbU, 0x3dd4acf0bd428e5bU, 0x3d9055603dc32099U,
  0xbc58add73c815f8dU, 0xbdeb7907bd029609U, 0xbdf508513d89b24fU, 0xbd680b913d9e0374U,
  0xbcf022563dc9411dU, 0x3cd46f9b3dec10ccU, 0xbd63c23c3c802769U, 0xbdf1ec243dadfedbU,
  0xbd6c7b89bd986df7U, 0x3e4a58173d87bbcaU, 0x3b7607eebde407d9U, 0xbd78ec043e375e75U,
  0x3bd83378bd7603eeU, 0x3e495040bea0974aU, 0xbd50591f3db5630aU, 0x3d44c87bbe8166e9U,
  0x3e275242bc8c3d4aU, 0xbb8753c2bdbb09c2U, 0x3d897a3fbcf38c96U, 0x3e9dbf313de1684eU,
  0xbdb7d1c33e44cff0U, 0x3e6ec934bd5c9aeeU, 0xbca34c68bb3d4813U, 0xbd65e822bdedf779U,
  0x3e45b83bbc1347cdU, 0xbc051efdbe2d029cU, 0x3e29299f3e16b03cU, 0x3d600a233e213411U,
  0xbdcd1861be8df581U, 0xbe60086bbf077f86U, 0xbdb6d356bcdb51dbU, 0xbd77917f3e134536U,
  0x3e092d6dbd80d68fU, 0x3d61c1243d983804U, 0x3cadef92bdc74c93U, 0x3c6438e6be525040U,
  0x3c3d84973e49d1c8U, 0xbd68d104be07d5b8U, 0x3d9db446be23f889U, 0xbdd577e5bd809765U,
  0x3d27be783c4475bfU, 0xbe708e3dbe826262U, 0xbd88d889bbeae2a1U, 0x3d11d97ebdf11c08U,
  0xbbd3c7713c079210U, 0xbdf0a9e4bd93255dU, 0xbd35ddb0bbc1ffd4U, 0xbba6c5abbdc45925U,
  0x3c7d5adcbd1362b3U, 0xbd6f2438bdba874dU, 0xbdad0c5bbdcc2bcbU, 0xbc645a24bd517b9eU,
  0xbd96496b3d2e6d33U, 0xbe15beefbd169157U, 0x3c9067b0b84bec7dU, 0xbda258d53bc9de17U,
  0xbdc27f1b3bee7fdaU, 0xbd087d563bcaf93dU, 0xbd94a3243c7688a8U, 0xbd1a51a4bdbcc0d2U,
  0xbdfac4ffbae79503U, 0x3c9c1871be02704dU, 0xbdf1dd4d3cbe2555U, 0x3c08e266bd93e056U,
  0x3cda0948bd6399f8U, 0xbda4963ebdb6d68cU, 0x3c89fe74be1328acU, 0x3cdf372ebd3990e9U,
  0x3b8b9575bc1a1c91U, 0xbb01c1dfbd26aca2U, 0x3cd9d79abe04417aU, 0xbc9d8278bcd4c540U,
  0x3bb9845e3d943b75U, 0xbd18979e3d1fa30dU, 0x3d0d416d3bc25803U, 0xbddaec223b227611U,
  0x3b901ea03ad90a2dU, 0xbd80da68bd90b2b1U, 0xbd2f8ea2bd2c646fU, 0xbe02a8b9bd4f9554U,
  0xbc585a873d94d0a7U, 0xbd9fd6b1bd51e45fU, 0xbddb8636be00eac3U, 0xbd568a2abd6ec504U,
  0xbd037ec4bd0a66dbU, 0xbdbfb36cbd3b9f36U, 0x3c081639bde8aba4U, 0xbdeaced7bdc835c9U,
  0x3a97ec653d462425U, 0xbdaa327ebca5a4f8U, 0x3d67d4623d8df5acU, 0x3cc3d3aabd9b1227U,
  0x3cf1fe383d3ce523U, 0xbca6585bbd8a769bU, 0xbc4f7f49bd6202c0U, 0x3ce68838bdd9e8e6U,
  0x3d02478fbda0b9f2U, 0xbdcd56cebd4551d6U, 0xbda76eb2b9c24ad8U, 0xbda5a4b0be1c073cU,
  0xbdf9cf9cbd4c47a9U, 0xbd444d6b3c19f64eU, 0xbdd1594abd4b0266U, 0x3c33c623bd03ba0dU,
  0xbdc182b9bdc4f926U, 0xbcd78a563c7d3977U, 0xbd1679d7bdd43f48U, 0xbddcf7863c02c81dU,
  0xbd92d881bc648fd4U, 0x3cd41ed1bd87ae54U, 0x3c321f4dbc09d1d2U, 0xbc16dd12bc5da670U,
  0x3c75d14cbb5c3a58U, 0xbcc25dc13c403a4eU, 0x3d2398bbbdd1af6cU, 0xbe186ed13d600c27U,
  0xbce1b816bc66f849U, 0xbdc1335a3c79ad7dU, 0xbd6a682cbd97611dU, 0xbcefb537bdabede4U,
  0xbcb7dc8c3d6b5cbfU, 0xbd5945b1bd97e80fU, 0xbe131a27bde0f4f2U, 0xbd0cc1c4bc48dc2cU,
  0xbd031165bcbe7345U, 0xbd2554b2bd9dfe2dU, 0xbd3403b3bd9ac788U, 0x3d8cfbdebd51f778U,
  0xbdd44d27bca33d48U, 0x3b6e9e4e3c597282U, 0xbc2564b1bdfb52f1U, 0xbddb8637bdc783b1U,
  0x3c54d9513d775245U, 0x3c2c127abbaab223U, 0xbd1014c63d1dfa34U, 0xbb8a8eb3bd9eed64U,
  0x3b5d4b74bce9cc77U, 0xbc828ef9bdeb8239U, 0xbc461176bb7d6087U, 0xbdfc6e73bde0cef2U,
  0xba6055133cec5af8U, 0x3c6ab9a1bd2671caU, 0x3b801292bddba6caU, 0xbb3cb2abbd49380aU,
  0xbcd76ea73cfac182U, 0x3cb181043cb7539fU, 0x3ccb5065bdc82df5U, 0xbd45cf02bd98312eU,
  0x3c2b629cbd4f53ebU, 0xbc8f846ebd89ab14U, 0xbd879eac3d12bd08U, 0xbce3afeabb8ce4e2U,
  0x3d5848febd10600cU, 0xbdf2fea7bb7915b0U, 0xbd5c57b4bc334decU, 0xbdd7dd57bd390388U,
  0xbd92c04bbdce3279U, 0x3ca82cb93ca389c3U, 0xbd4f5381bd1ddb18U, 0x3a993c11bdba7e97U,
  0x3bb71b47bd8498f4U, 0x3a32f20ebd7927a6U, 0xbdb775a0bde45899U, 0xbd7862c8bc6fe411U,
  0xbc8228043d285e05U, 0xbcebe433bd673458U, 0x3d88f0d33d4d77e0U, 0xbd1a1e4fbd9e5f3cU,
  0xbdbf5b0a3c3dc10eU, 0xbd54767ebdd8fb58U, 0xbe0ee1003b6193b2U, 0x3ced94a1bc14db8eU,
  0x3d86da663b027800U, 0x3c237790bd3309dbU, 0xbd7aa987bdd9c206U, 0x3c5c180f3bab9bb0U,
  0xbcd9dca63d5d4be8U, 0xb98522893c88e246U, 0x3bdf5c143be23d2cU, 0xbdd21b95bd5441baU,
  0xbcbbb26ebd32a153U, 0xbb7d09d1bd52a0efU, 0xbdbc54513c10421fU, 0xbd3d4d233d827c53U,
  0x3991bf21bd5c99fcU, 0xbe05d292bc7aafbeU, 0xbdfa4a08bddc03adU, 0xbd83948c3be74641U,
  0x3c95db913dcdc51aU, 0xbdb4ed0b3d97e9a4U, 0xbcf3406ebd084a58U, 0x3dddae97bd9ba3f6U,
  0xbb20f01c3d00b31bU, 0x3c2c78fcbdb191ecU, 0x3cd289543d558e91U, 0x3d59b3bcbcd97101U,
  0xbd9dc561bb6bdc4aU, 0xbd67b4acbdf47f25U, 0x3cb83a643d55db68U, 0x3da2464ebd86332bU,
  0x3c96e7a33ced5ae0U, 0xbce5d749bdd293a5U, 0xbdc998503da796afU, 0xbd910f91bd87f2d4U,
  0xbc01fe9dbd374343U, 0xbc5ced543dbea71fU, 0x3d9ca5093ba6796cU, 0xbd25da83bd49c709U,
  0xbd8747273d477922U, 0xbc84247ebdfa4bd4U, 0xbcb0f9a93c345c1fU, 0xbc8191c4bd9e0cc6U,
  0xbd2b1e793dccd2a2U, 0x3c4a8f16bceb9043U, 0xbdb1e06e3d1a870bU, 0xbc1e5d60bd84a1faU,
  0xbd4fe6a0bd848712U, 0xbd8a25cabdf0de74U, 0xbd9da61cbcabfb22U, 0x39d538fbbd9d99c3U,
  0x3c3c234cbe0acfdfU, 0x3d6bb5423d06a58aU, 0xbb5a7376bd77dbe9U, 0xbd73df54bc1d3b23U,
  0xbd3eb1c0bd9688c5U, 0xbdab7753bd8b32e5U, 0xbdad8c353d1a3e65U, 0x3c8e71003d6d8833U,
  0xbe0869f63cfc154aU, 0xbc3d39473b35470eU, 0xbca56cf3bdf88b5eU, 0xbd4d431ebd80e815U,
  0xbe11a8d6bdc1d766U, 0xbb97a1c5bd968dd8U, 0xbd4b1a81bcd871f5U, 0xbdad41283d235f83U,
  0x3c78d273bde27a10U, 0xbd3fb3dbbd69203fU, 0x3d07acdebc77cabeU, 0xbdd9f2b7bd443b1bU,
  0x398509c03d17ebdcU, 0xbc4d748fbd05e5e6U, 0xbd991ee73c1b768aU, 0xbd810392bc5e4dc0U,
  0xbd4fa45ebd526c2aU, 0xbd58ab2cbdebfbe0U, 0xbdb915afbd9cecc1U, 0xbde745663d1f1de6U,
  0x3cb406903c6d90c0U, 0x3c6aaf2f3a54a852U, 0x3cf2eb8bbda7d7f9U, 0xbabee49cbdc6fae8U,
  0xbd60a169bcd1e3b0U, 0xbd7e3875be0fe755U, 0x3bef40be3d4558f4U, 0xbd91d17cbdc21c40U,
  0x3cdfec9abd700c21U, 0xbde5c63cbdd111cbU, 0x3c94df48bd3b33aaU, 0xbcea769ebdafdf18U,
  0xbd78ac4f3d1ec265U, 0xbd13d2b0bd568b03U, 0xbdcab84c3c985341U, 0xbd0388c2bdd216dbU,
  0xbd19b44a3d3f4d61U, 0xbdf37dfebe127bc3U, 0x3d5051683bb58191U, 0xbda3a5cabd13a1cdU,
  0xbe297b4cbd8e1b24U, 0xbd68c7a2be48d389U, 0xbd6177f63bfa1470U, 0xbdded09bbd227717U,
  0xbced0ce73d82e7c6U, 0xbd95eb16bd97aa4cU, 0xbd88c5b1bdc21dadU, 0x3d68aef8be2417d0U,
  0xbbf7cdda3cb5ab2dU, 0x3cd99161bde8654cU, 0xbdad8bc5bcb48640U, 0xbd9a5fb4bddf8be1U,
  0x3d9226d7bd6bb545U, 0xbcf6ac5139c24931U, 0xbd6ca5dbbc99e91fU, 0xbde5be473d908737U,
  0x3d89a6f4bbe4f2c9U, 0xbdf643143d96ad2dU, 0x3d7919123a989a8dU, 0x3d9a3a2dbd73bd2aU,
  0xbe0232d5bcdc9658U, 0xbd2e614abac8fc7eU, 0x3c16b5e9bd01cec5U, 0xbdb1a4ae3cf44179U,
  0xbd0b8a933c83648eU, 0xbd9e32f4bd286710U, 0xbdcddbd2bdd14866U, 0xbdbc31c7bd67d3c6U,
  0xbc96b99dbd8344eeU, 0xbca07dd03c519b9dU, 0xbe0eadccbdbc4994U, 0xbc25af9dbdaae61eU,
  0xbbea0e9fbd27587cU, 0xbd64f96abd1669e4U, 0x3d8152b8bd69b1e2U, 0xbbce8b4c3b83bf4eU,
  0x3d59d50c3cd648a1U, 0x3d14dff6bbf64ca2U, 0x3c6340b1bdc61f6fU, 0xbd6f3d2bbdb7a207U,
  0xbda44c9f3bd0c1fdU, 0x3d95ec26bd6ae95aU, 0xbd6037aebd1b6ab0U, 0x3bf32c833cdc335aU,
  0xbb03d9bdbd8a3096U, 0xbd86b28cbc768614U, 0x3b9700593d18b1ddU, 0xbd821f913cc3ccb3U,
  0xbd8196533da174cbU, 0x3bab949bbda6f242U, 0xbdd17d6bbdff2512U, 0xbcf2a231bdedb77aU,
  0xbd89f31bbdf6a2ddU, 0xbda11b4d3cbce838U, 0x3c3ed5a2bd1f9f37U, 0x3c56625ebe47dee0U,
  0x3d6fd2033d5786d4U, 0xbd096f5ebdc01036U, 0xbd8c4739be005fbbU, 0x3d4f5525bd9996abU,
  0x3ddc0f873d0bca7eU, 0xbde5a154bd01a947U, 0xbbd2b70fbc6b77a0U, 0xbc4ad1133c9f3118U,
  0xbd96621dbd97df67U, 0xbdad16a9bdac6c20U, 0xbddc3bf6bdc432f1U, 0xbd2720ba3d916bd1U,
  0xbd799dfdbca752b5U, 0xbd9b5dae3d3c646bU, 0x3d17b36e3c2ea977U, 0xbd98a8513d86c042U,
  0x3c74a1fbbdd41102U, 0x3d280c56bdb0d1c9U, 0x3d9822363d692a79U, 0xbd925c69bdbfab02U,
  0xbdafd667bd183b52U, 0x3d2f8e42bc76a93eU, 0xbd339daebd2a0e16U, 0xbc49649d3c8fc732U,
  0x3d587a74bcf903efU, 0xbc5a13a2bda3ac36U, 0xbd3420a93d4d4fe7U, 0xbd7a8eb73d7cebfdU,
  0xbdc02a4a3cab1cb0U, 0x3d45e8473c539c8bU, 0x3d2c5d093d175bb6U, 0xbd1aec3a3d06d582U,
  0xbcb393adbd973346U, 0x3d2cbe46bdc3e958U, 0x3d594328bdba1d80U, 0xbdcb760bbcebad84U,
  0x3d6e2cc1bdb0c6b7U, 0xbdd2950c3d1b657cU, 0x3d2e2196bdcc555dU, 0xbd492fd6bc92bcd3U,
  0xbc54caf63d678d72U, 0xbb0d46c6bdeb33aeU, 0xbd5acdcfbd8f336bU, 0xbce8fde5bdd2ee85U,
  0xbd7aaeb53cc42a87U, 0xbdc48f67bce71281U, 0xbd973b5a3cb879c6U, 0xbc569462bde46955U,
  0x3cd3426abddb529dU, 0xbd03c31ebc8c990aU, 0xbd92ac65bdebf000U, 0xbd5d0bd2bcac1e07U,
  0x3d265dd9bd3b5090U, 0x3b476854bd50c72aU, 0xbce8f3b3bd95ef64U, 0xbcfb17d6bd9136cdU,
  0xbd9850ad3c801e70U, 0x3ca775c5bdc4e99dU, 0xba7859b2bddf4f4aU, 0x3dbab7783c72f7d2U,
  0xbd667e2cbd55913aU, 0xbd5a43ccbd73f13bU, 0x3d2c00cc3d34b95dU, 0x3c92c0ca3d77727fU,
  0xbc802e44bbc3a9baU, 0xbdcb8ff63c29d21aU, 0xbcb078fbbb0011e9U, 0xbd97f5e1bd8dad70U,
  0x3c38a1293d4e0250U, 0x3d1d7abfbc402e47U, 0x3c6f211ebce9b9d4U, 0x3c58f068bc44c157U,
  0xbd9843e03d033045U, 0xbd2dd5ddbca66b08U, 0xbc8943cebcee0e24U, 0x3d6414873c892413U,
  0xbdf77d0b3cd4b3d0U, 0xbd97fa18bda02fa6U, 0xbcc127293d080e45U, 0xbd1837b4bdbbb4a3U,
  0x3d3e7b55bcdbd15dU, 0xbdf6e91fbdd61302U, 0xbd83ab43bc38b30bU, 0xbc0f9a3e3d0c92e9U,
  0xbd32c2b7bb3cdd83U, 0x3bba6935bc9a4b85U, 0x3c8842e8bda4e78eU, 0xbc47c288bd8f2988U,
  0xbda21afe3c9569d0U, 0x3cbfc68ebdf3a57bU, 0x3d649c13bbf7b7a6U, 0xbc2a84afbceeed4dU,
  0x3d1d12b6bdb70378U, 0xbdcf3098bda51d4bU, 0x3a9977b7bd8e26c1U, 0xbca2baa7bd73c830U,
  0xbb9dfd47bdb67a9fU, 0x3d253698bc9fe768U, 0xbdb4a1a8bdd58f95U, 0xbd3517e5bde1e719U,
  0x3d025e97bce5f101U, 0x3cd2b9debd5c178dU, 0x3d4d318cbdc3b7c1U, 0xbdc71370bc9cf8e1U,
  0xbba0c211bcffbd9bU, 0xbdae4f44bce0e6c5U, 0xbc1f5f1fbd3c9cbaU, 0xbd06f55abc37cc96U,
  0xbb8ae4b2bd1f8f63U, 0x3ced17323dd07763U, 0xbc0a176d3d373f82U, 0x3d37d24fbd2c5b94U,
  0xbd82b927bd900d37U, 0xbdc550febcaf0c56U, 0xbd66b0343cd5db4dU, 0x3d88df6cbd192dc6U,
  0x3d9f6c723d7f7044U, 0x3d24617cbd137ad1U, 0x3caf042bbd9c8ed0U, 0xbc5eab063d27650aU,
  0x3d24949a3ca95b4aU, 0xbc936d663c36bd80U, 0xbd559d31bc3d6899U, 0xb9e6f7e5bda7f650U,
  0x3d12fb57bdc6e8beU, 0x3c8df94abd9b1fdbU, 0xbd729a53bd2944cfU, 0xbd4f79123d480a54U,
  0x3ced64df3cddfd06U, 0xbac62adabc968a2cU, 0xbd4ebd28bd853545U, 0xbd3e16a1bc951c77U,
  0x3d2d498abd8b8592U, 0xbda31fbcbd8fca44U, 0x3cb9025f3d50cac1U, 0xbda8eaf9bd0c7374U,
  0x3b469107bcf94614U, 0x3d30cf553d4ea8f6U, 0xbd79098ebab5ce1bU, 0x3cd0d3a2bd5e8457U,
  0x3d53c2103d034b7cU, 0x3cf967e2bd8e4e87U, 0xbd9e2a6abd8eab63U, 0x3b1f1bc7bd87a78fU,
  0xbe020823bd652a69U, 0xbdd319703c8304b1U, 0x3bf2db8d3c945efaU, 0xbd4f3a57bd1a26d4U,
  0xbd559836bdb281a6U, 0xbc93ab2fbe013456U, 0xbde0b8f1bdda1a7aU, 0xbd93ee28bd7d60eaU,
  0x3dc3734e3c42849cU, 0xbc15ce6fbe1bcc6dU, 0xbdae2d443b5a9143U, 0xbe0ac69d3d8d04b6U,
  0xbd98c9ebbde8b0b2U, 0xbe2cdfc1bd44dee3U, 0xbc3e4ffbbda6a59cU, 0xbd9cec0abe037e2dU,
  0xbd13cc8cbe9bfaefU, 0xbdc7cef93dc53ee0U, 0xbc9bab94bdae0e08U, 0xbda859cebe35bba4U,
  0xbd7a2ee5bdd1d310U, 0xbd217770bc98db64U, 0x3d9d70a9bd921d0cU, 0xbe13bd31be15edb6U,
  0x3da00cecbc42d2edU, 0xbdee85efbe21bbc6U, 0xbdcdacd63e13f9c6U, 0xbe043220bd4cb26aU,
  0x3dffb866bdb73d91U, 0xbe7634eabdb4c1b3U, 0xbd746052bdf2213dU, 0x3df44fc9be0b733dU,
  0x3e016ec0be536469U, 0xbca4d520bcf98db9U, 0x3d63d232bd77d0afU, 0xbd9b7cebbe3a2255U,
  0xbdd28f993d40ea1aU, 0xbdcfe340bc36d2faU, 0x3d767a7b3dcc2986U, 0x3d6d60883a28c276U,
  0x3cc1228a3da25e10U, 0xbdee0338bdcd3e9aU, 0xbc2289af3e0f9c04U, 0xbe12775a3c1fecd8U,
  0x3e37b1d3bde34639U, 0xbc1664f63d3675c6U, 0xbe0822edbea53c57U, 0x3dac39ecbe68f93fU,
  0x3d94b8dcbe211736U, 0xbd03c55dbd27f429U, 0xbd161e613d1f3cdbU, 0x3df0e58ebde3c718U,
  0x3c77bdca3d001603U, 0xbdf6ecb2bd40f0bdU, 0x3d6a4061bca97dbaU, 0x3e043dc23cc62021U,
  0xbe013275bdff9fa4U, 0xbdb940d93d91c5fcU, 0xbbd0a01cbda995faU, 0x3d661423be08bbd8U,
  0xbcf3dcc2bda5d060U, 0xbd9a6a90bdcfa2bcU, 0xbcd8aafabbf71284U, 0xbd211b1d3b9f3ffbU,
  0x3e32d84bbe33fc12U, 0x3cd28847bcc4900fU, 0xbddfd2ecbd51c2d8U, 0xbdc4c63ebd3f9947U,
  0xbe419c28bd34f149U, 0x3d9834edbdbfc48cU, 0xbe1245213b9d0a54U, 0x3d36a1c33dab0ca2U,
  0xbddc30d0be3e39fcU, 0xbe82a9b43def4632U, 0x3e90fdc53d80121eU, 0x3e508060bd304e36U,
  0xbdcc38233d6c9f5cU, 0xbe2173f6bd583ed7U, 0x3ddb71d53e8159d5U, 0xbd4fab1a3c43e4aaU,
  0x3df56e21be4adcb9U, 0x3c8974cc3ceacd53U, 0x3da31df2bd63d76dU, 0xbd138381bd57966fU,
  0xbd47493d3c62bae6U, 0x3da67915bd037635U, 0xbdc21816bbc62922U, 0x3de5a3fa3ceaf654U,
  0x3e6c20043e322c55U, 0x3cf550843ea37b55U, 0x3eb3032cbd9cda7bU, 0x3e7ffb4cbccdf98bU,
  0xbd6d4fe33e35f021U, 0xbcd4b032be3f491cU, 0x3d9ce97c3ed18d39U, 0x3e357c753e04c542U,
  0x3e6bbd253c3db4b4U, 0x3e5a7f64b9f5223cU, 0xbcecd84abd83e7ddU, 0x3dd8916d3d9f53d2U,
  0xbd037e593dc648d8U, 0x3de04115bd9ad212U, 0xbd10294d3d46b0f6U, 0x3e6afebabca973e5U,
  0xbb982830bdc92d8aU, 0xbe88a2a4be927a65U, 0xbd76eef23bbcafb3U, 0xbe003922be28ee1eU,
  0x3db0a85bbe436bfeU, 0xbe035ec0bcfc2684U, 0xbd4f82b0bd6c4a10U, 0x3dd5ce56bea72239U,
  0xbd7b7a27bdd79d5fU, 0xbbdcea94bd7e9487U, 0xbe2f37a9bd9dbba9U, 0xbdde8e85bdacd03fU,
  0x3c1407a8be8f6608U, 0xbe4cdab0be19d4e7U, 0xbded41cabc08f0caU, 0xbe797c94bdfccf4bU,
  0xbe0e9ad7be27ff1aU, 0xbdee0014bea31fc4U, 0xbe56514b3d808f1aU, 0xbdd30ffebd0271e0U,
  0xbd0568d3bd196c46U, 0xbacbc506bd14b25eU, 0xbdc285c3bd645463U, 0xbe342a14be77fb19U,
  0xbdb0b2d8be7cc892U, 0xbdb5955c3ce57364U, 0x3b271c9fbda75795U, 0xbe030910be27dfccU,
  0xbde042bbbedb90e1U, 0x3ca95c51bb3c407eU, 0xbe12d0c0be243027U, 0xbe35676fbdb44200U,
  0xbe102a91be480c08U, 0x3cbd1c37be498f4bU, 0x3db772173de36de8U, 0xbc5239bf3d308b51U,
  0x3e1b4b153b78b693U, 0xbd698ef13dcc0c48U, 0x3d18ae5a3dbb1cbdU, 0xbc0d9141be14bfc3U,
  0xbd3a281abdb1ef49U, 0xbd7d7d863e27ebefU, 0xbb88575e3c484320U, 0xbd3a424abbb8da1cU,
  0x3d8ec838be96fb93U, 0x3d4b1adc3d7ce62aU, 0xba833a2a3cb6440eU, 0xbe3a04eabd7c4b03U,
  0xbd929beb3d177c20U, 0x3e11c529bcd4fa25U, 0xbe151895bd8c444cU, 0xbe0556e2bd4241cfU,
  0x3d3b5ecebdff486dU, 0x3d020ecfbdc01555U, 0xbdfd6a933d2bceb2U, 0x3dbfaa38bc2958c7U,
  0xbe3a1e3c3dbb9086U, 0xbd5a7ca2bdc8a923U, 0xbdcd423abe56b652U, 0xbd3f6978bebb7b79U,
  0x3dbdbd2b3ce2c757U, 0x3e59ff21be70af15U, 0x3e078e543cf8fbbcU, 0xbd67964b3e101c41U,
  0xbda170f33d46568dU, 0xbdeae8e73d73a120U, 0xbe9359a2be6a4dcdU, 0xbd2af0253d4eee09U,
  0xbbf1adf8bd645ba2U, 0x3da391203dd7a9eeU, 0xbdf2a395be686948U, 0x3d331c57bddd92b6U,
  0xbdd2c4ab3d129f66U, 0xbdb14360bd1b657dU, 0x3ab71e3abdc5efbfU, 0x3d14acccbeafd504U,
  0xbd16834eb91c0306U, 0xbd4617c73db7ea72U, 0xbc9220563dbe21b4U, 0xbd29dfe63d506cd3U,
  0xbea5e3a43d8022d1U, 0xbd2174203e211e2bU, 0xbea30195bd351b1dU, 0xbc9a6116be046e55U,
  0x3d035564bea344e0U, 0x3dad509c3c446842U, 0x3dd5ce38bd88101bU, 0x3d16e60ebd987322U,
  0xbd10f0223cecb73cU, 0xbd93c50cbe3caaceU, 0x3d5ba4b0bd661badU, 0x3d56da1abe1d2da3U,
  0x3e403aa03e18d9fcU, 0xbd648015be99379fU, 0x3e7406d2bd09c94bU, 0xbb02449cbca57122U,
  0xbe9590f9bd2331e1U, 0x3e248dd0be16f543U, 0xbe9eb3a8bcf061a2U, 0xbe61dd473c576c84U,
  0xbdd73e6abeac4543U, 0xbcc12990bd12adc2U, 0x3d839fd43dcdfb47U, 0xbcf747e0bd2d0dc8U,
  0xbc25929cbdad8fe6U, 0xbe062671bdb22095U, 0xbb140616beb29cb6U, 0xbbe18991becb99b3U,
  0xbcea98e4be1cb2ecU, 0xbaa44bd4bd27af09U, 0xbe0499dabe7f00c0U, 0x3c80418abd87b659U,
  0xbee232cdbe772e93U, 0xbb8982b0bd6333f9U, 0xbe57e8b6bc6862c4U, 0xbc62973cbe5372b8U,
  0xbd5d893dbc8b9e4fU, 0xbd27d4c63ce04c57U, 0x3def36de3da0c7e2U, 0xbe023d0d3c69cd99U,
  0x3d3e249bbd4a3d79U, 0xbe264ca1bdfbc90fU, 0x3cc9c94bbe51e846U, 0xbd6286c3bd93ac2eU,
  0xbcb7990fbbac2323U, 0x3cc9ae65be6a4d0fU, 0x3ccd6ab7be6bce8bU, 0x3d7061b63de667e2U,
  0xbeb2f4c4beaec1fbU, 0x3e92b63f3e0edd3fU, 0xbe3288e2bcc0f5a5U, 0x3e086645bd471f4eU,
  0x3dc62a033c1bb20aU, 0x3bcf4603bcab3385U, 0x3e4f2ebcbca9e9caU, 0xbe4d28153e576207U,
  0x3dff549fbcbcbf25U, 0x3dbd77c4bd5943a7U, 0xbddfa674be935166U, 0x3cbae945be4788b3U,
  0x3b99d02d3e670114U, 0x3e8e10f2bec7f796U, 0xbdc32b4bbe4adc64U, 0xbd6c29da3e5ef890U,
  0xbd8b1148bcf7ca78U, 0x3e61b1953d378f8eU, 0x3ceb355e3ddc5862U, 0x3c9866813d5f1d76U,
  0x3de190fc3c3e359bU, 0xbdc21641bd884f8aU, 0x3d03291d3dff88fcU, 0x3e392db83cf7366bU,
  0xbcefce55bdb6e095U, 0x3e34af7bbe130291U, 0x3cccf4d63c9535fcU, 0xbd0073f4ba99a777U,
  0x3b76de56bdad8379U, 0x3e23f63f3c6a6ecbU, 0x3cbfad1abd576974U, 0xbbae99c23ec05b7dU,
  0xbead9fb8be36dc9eU, 0xbc39577bbd6e3556U, 0x3d42e8f43d5d838cU, 0x3db43da93dbf1092U,
  0xbd1238d73dc2bc6bU, 0x3d1b88d1bd572d11U, 0xbd92d38c3dd61807U, 0xbe4eb9253e415fdbU,
  0xbceb6afabe19e0efU, 0xbdd273e03dd02d32U, 0xbe16bb2a3dde8522U, 0xbe1e5c5a3a8b9479U,
  0xbe28cebf3d79bd47U, 0xbd5bbc423e4e2d23U, 0xbe2d6f18be6084e7U, 0xbd6b02103e031570U,
  0xbee23a45bee89d67U, 0x3e90755eba33a726U, 0x3ca9c8efbdd2127bU, 0x3def3087bdc8ba50U,
  0x3bcaab1d3e743351U, 0xbe117528be33f46cU, 0xbdc4beb8bd777678U, 0xbe9490643e8f24e0U,
  0x3df30f0fbe215906U, 0xbd92a2063d8b642eU, 0xbddcc18c3e03a749U, 0xbdbf48b93e1e630dU,
  0xbcd0fab43deb6744U, 0x3e8efcc3bd1d2ee6U, 0x3bb4526d3d03b4ccU, 0xb9e1d1263e8de7ddU,
  0x3e47a6d23ca1c594U, 0xbdd40c46bb98bb7aU, 0x3e427c57bc86f05eU, 0x3d0d308ebdcd6572U,
  0x3e23f9ab3d45c496U, 0xbe4a3382be65a5afU, 0x3c427a2cbd057956U, 0x3e63e36dbe91afe8U,
  0xbd6b7bfd3ca8646aU, 0x3e45106bbe236b1fU, 0xbcda2ba13e13055bU, 0xbd667a023e511d73U,
  0x3dac6b8bbe814c43U, 0xbe1cc3c5be50e99cU, 0x3d8c6f3c3e0354bcU, 0x3bb908bf3e412146U,
  0xbc5f580ebc67f1cdU, 0xbe4a9150bd9cd7ceU, 0xbd35f9863b74e000U, 0xbe0d596fbe2a6dc1U,
  0x3be45964be1494ccU, 0xbce60c03bd716c8eU, 0x3d56723bbe438f70U, 0x3d3fef76be4e6efdU,
  0xbd75b7e53da19e47U, 0x3d8f3500be21026dU, 0x3d40190ebdc2227bU, 0x3b30aebebdab5d43U,
  0x3d88d98abde5d7e4U, 0xbe5b1361bea38101U, 0xbe2a0d7bbcacf784U, 0xbc87debb3ba9b883U,
  0xbd8043ed3bcb414cU, 0xbdbefa95bd283859U, 0x3d048e45be0b83f4U, 0x3b8965393d03b5c0U,
  0xbd1a6c05be44496fU, 0x3d83e0f03d32d44bU, 0xbdcdd9adbe58eaabU, 0x3d8fe362be4956d4U,
  0xbd37e3063deb8c9fU, 0xbd00e661be19b411U, 0x3b4db882be9555a3U, 0xbcf2f00fbe1823e1U,
  0x3d5a0f4cbd867e70U, 0xbe17e702be76f5a2U, 0xbe191008bb03f719U, 0x3d80a17ebc9c030dU,
  0x3dae80033a2a30aaU, 0x3ca6f7623d096a6aU, 0x3e75aec43db0809dU, 0xbe27a7cfbe637b69U,
  0x3d833fe63e10e1adU, 0xbe721ffabe114d92U, 0x3d9cf1633c713cacU, 0x3dc4f623be9860f3U,
  0xbd15679bbe023634U, 0x3d920eb2bde65e3dU, 0xbdf1b3ae3d34037aU, 0xbcb2de883e3274f1U,
  0xbd7118debe910364U, 0xbe113b1ebdee095fU, 0x3cdf42ee3dbb4bebU, 0xbd906ec93d1b25a4U,
  0x3d1219ec3d1b110eU, 0xbe1b9199bdec9502U, 0xbd560178be0d0f58U, 0xbe73cae6bc91dd81U,
  0xbd3fce9bbe09fa09U, 0x3c24981abe2ffad8U, 0xbe182748beb1cf21U, 0x3d5d613bbe8c7a04U,
  0x3c0736df3d2bb663U, 0x3da41ffbbe41cfdfU, 0x3cf5c568be337051U, 0x3da325233d25b0f2U,
  0xbd0513a3be02f168U, 0xbde34b5cbe4e37b8U, 0x3d7fc8fabcba4ebbU, 0x3d4d879b3d800bcbU,
  0xbd665b4d3cf85641U, 0xbea8952bbccb519fU, 0xbe32b826bc3a57b8U, 0xbd2e0ac0bd1afb6aU,
  0x3cf0e1acbdc5ea08U, 0xbc4b434dbc3040b7U, 0x3c5bdfffbe1b676aU, 0x3e1269dfbdd9d588U,
  0xbcaeb6f33e75041eU, 0xbdb3ca6bbe35e262U, 0x3d590506bd767d43U, 0x3cf6297fbe0d6319U,
  0x3d895746bccd6ef5U, 0xbe307cdcbe730cceU, 0xbcfee1403d9d4989U, 0x3ca612ac3c475ecbU,
  0x3e2dfacabb9b8fb4U, 0x3cfe3bee3e08ff7aU, 0x3e37f5553d329364U, 0xbd1fe26bbe3e6168U,
  0xbc4565f73e4980deU, 0xbe08a4a6bdadd654U, 0x3e1251563e323873U, 0x3e0c09b8be1cf46bU,
  0x3de7b6c9be3754cbU, 0x3d9b0080bd3c89dcU, 0xbd41f8513e3105e6U, 0xbdb0f98a3e46fa75U,
  0xbd93bf35bc83d05cU, 0xbe20fd583ccf3d1fU, 0xbc88b3223e2ecebfU, 0x3db2daadbd06c076U,
  0x3dbadca43dbf8822U, 0xbe05638c3db1e618U, 0xbd405b413d64064fU, 0xbebcd4303c8ce0c7U,
  0x3d8624cdbe4e10e6U, 0xbdcb916cbc413a0dU, 0xbd902767be90d81cU, 0x3d94f1d5bef9d114U,
  0x3d99bbe8bddea13cU, 0x3ca514bfbe353bd1U, 0x3dea2016be31c9d7U, 0x3da93ca83d9a8d8eU,
  0xbc892229be2d5243U, 0xbe136d06be5b982bU, 0xbc5a309d3cccb528U, 0x3dcdc6193d96d0a1U,
  0xbe2a1c61bd03c546U, 0xbe870bd4be209b28U, 0xbe3f31c8bd1975c1U, 0xbe2adf3a3e0b5b18U,
  0x3d7c8adebe172c84U, 0x3c64699a3c73d5b0U, 0x3d3d2669bd14849bU, 0x3ccd969c3c1de792U,
  0x3de3b7413de20b0eU, 0xbde4a66b3c8841e2U, 0x3d30cef5be24a863U, 0xbad65c58be2dd8eaU,
  0x3e0045c4be140530U, 0xbe2c87a4bdc22910U, 0xbda1ae24bd60a071U, 0x3c6ec1f7be4a6d61U,
  0xbd5cb816bdd5dd3cU, 0xbaa324cf3d34b9a5U, 0x3bc7e561bc1bcd9aU, 0xbd367a563d12fa0fU,
  0x3d1e97d23d46d92fU, 0xbd1772b3bdd90bdeU, 0x3d16683d3c027f86U, 0x3cb51e81bdd662f7U,
  0xbd0604b03ce2868bU, 0xbce012a9bd51f7feU, 0xbc8d32a2bd432fddU, 0x3c60058fb9e18ca1U,
  0xbdd04fc7ba64731dU, 0x3cbed63cbcd7aa24U, 0xbd2a20f4bd82f346U, 0x3d73c21cbdcc33ebU,
  0x3b50b54dbddbc64eU, 0xbb8f1db0bd9772eeU, 0x3d1f0018bdad45d8U, 0xbd1d3b1f3d0c30c4U,
  0xbd784a9fbd9f4fd1U, 0x3d454bc1bdc94ab5U, 0x3aad27a53cab8554U, 0xbca294c7bcdccac5U,
  0xbd186d953c3b95e3U, 0xbc8bf1afbdc044e6U, 0x3d1e5374bd49440aU, 0x3d6639023d6cb54aU,
  0xbc6348d5bd05f4deU, 0xbd937abebd1ea6feU, 0xbd0d1a703d7125bfU, 0xbce17598bd7f5124U,
  0x3d801fdd3d4622c1U, 0xbd3233d5bdb90816U, 0x3c5ae079bda9c3aeU, 0x3d94a337bdd6ad88U,
  0xbda015e33cc780baU, 0xbda9945bbdaa7aa7U, 0xbdc4a3ba3d8b7f0dU, 0xbd8abd31bbaae576U,
  0xbd51281d3d6122d0U, 0x3ae9395bbd0191d4U, 0xb9f3be333d2ab067U, 0xbd97c4ad3b9a33d3U,
  0x3d65863d3d85d12dU, 0x3d4740d9bd5fab72U, 0x3d0fdf383d13b0fbU, 0xbda608efbda02691U,
  0xbd91fb3dbd58a4dbU, 0xbda4604c3d18c054U, 0x3d61bffc3d1f3d4bU, 0xbd22e3d8bc0cff90U,
  0xbd7176aa3cb10dfcU, 0xba341a41bd347ca5U, 0xbda716dd3d76fdb2U, 0xbc730799bd383a63U,
  0x3cefbbc7bc41835eU, 0x3c8a7588bda36c8aU, 0x3cff9f5abbb53de4U, 0x3cb452c4bce5812bU,
  0xbceb633cbd6e079cU, 0xbdab18d5bd184b2cU, 0xbc6dc637bcf2af5cU, 0x3c60a18d3d160515U,
  0xbd512172bdaa6593U, 0xbdb38cc3bdbdc1feU, 0xbc216c17bd96d331U, 0x3c30fa6dbc312d07U,
  0xbdaac8f5bbeec199U, 0x3a920c043d20272aU, 0xbdb08490bdbe4ea1U, 0xbc94e07c3c7388a4U,
  0x3ccfbcc43d7899fdU, 0xbdadd2e33cede355U, 0xbd2c66ba3d71b6f0U, 0xbdbaef49bcff2f03U,
  0xbd77b2f03b72a0d2U, 0x3c273a973c2e9defU, 0xbd28e9d83d3ea275U, 0xbdb874173d0fbd28U,
  0xbbc32aad3ca4a583U, 0xbbc24ad5bc3dc611U, 0xbc7819a6bcb2ddc4U, 0xbcccf2543cdef02eU,
  0x3d14ea62bbcb36bfU, 0x3d1c8e8dbd4c974aU, 0xbd1fc39cbd66e83aU, 0x3d85f72abd1d8019U,
  0xbcd16f4cbd01298aU, 0x3d662b55bc482a1fU, 0x3d5c0b9fbd3dc834U, 0xbd9e1ef0bd35bff6U,
  0x3d593dcebd8a8b19U, 0xbd113981bd244cb8U, 0x3d6021d5bc7ad016U, 0xbcdecaa9bdcc6fc8U,
  0xbd9472383abf08fbU, 0x3d8c5fb53cc44c98U, 0xbcc2a66fbdadea21U, 0x3ca8a12fbd62cb02U,
  0xbd9e3390bd4203c0U, 0x3ae807083d6df57cU, 0xbd62baae3d131c98U, 0x3d84b7e83c88a200U,
  0x3c86c4443d3addfdU, 0xbd09b3763c18859cU, 0x3c2a31b23d713368U, 0xbc2b663bbd9a0a58U,
  0xbdafcc6b3d3233a3U, 0x3c0c8d99bb925a9eU, 0x3c8e1d263b41d48dU, 0xbdb2d7f0bd848c3fU,
  0xbbea2c40bc50ff39U, 0x3d4fe5ecbd89c958U, 0x3d474ebdbdc561c1U, 0x3c8a0f113d33ae09U,
  0xbdb9d8463d83dc2fU, 0xbdca312ebd2b1733U, 0xbcc79b873c024798U, 0xbd92104d3ca0c3a0U,
  0xbc981c0a3995dcb4U, 0xbda7a509bd87efa3U, 0x3b833a0c3d444d3aU, 0xbd5318e73d6a0077U,
  0x3c771aa8bc665a64U, 0x3bab0968bd63dde1U, 0x3c971f6abdc33140U, 0xbdc878a3b9eaba05U,
  0xbda21964bd9979edU, 0xbd77fd3cbd8964b8U, 0xbd9bd3c53d057b52U, 0xbd810789bd0ce8b4U,
  0xbc2437c9bd057c0bU, 0x3d42d736bdb5bcf0U, 0x3d1b262bbd8b2bfcU, 0xbd6e0ccdbc2a736aU,
  0xbdba3ed53d0f7234U, 0xbd9a35c53928c83eU, 0xbd5427d6bd77853bU, 0x3d6d31efbaace4e8U,
  0x3d433b81bd8f6225U, 0xbc0c2e233d5eb938U, 0xbaaad276bd053063U, 0x3ca09e0dbc74ed92U,
  0x3d3b5fd1bd1e762cU, 0xbd31d1723d1470c4U, 0xbd99799ebd50e5c0U, 0xbbc667b13c39c440U,
  0xbd65101c3d3b268bU, 0xbda3969abd2dcaabU, 0xbcd3e13c3d47a2daU, 0xbd887f45bd740295U,
  0xbdb4a1623cbdd26eU, 0xbd1f13d0bdfcc432U, 0xbcbd08eabc211a2cU, 0x3d148d9fbd87650eU,
  0xbdea7b78bccd6ba3U, 0x3bc43dd0bd144a24U, 0xbd7aa4733ce6aa5dU, 0xbd5b2de4bd54c3b7U,
  0xbc09b5d4bdc66184U, 0x3d55de5c3c60a818U, 0x3c6c44903cce4b89U, 0xbb574afdbc6a5f09U,
  0x3c7190983c9e8565U, 0xbd03d5423c03b980U, 0x3d3836f93a92d199U, 0x3ce524ccbc9b021cU,
  0x3d455e3cbd9858e9U, 0xbdb94e9bbbb7e2c7U, 0xbd1a995b3c231130U, 0xbdc1f93cbd561ec0U,
  0xbdd55369bc68567aU, 0x3cf71d8bbc401137U, 0x3d584837bd1eaea5U, 0xbd3d880d3d30c56eU,
  0x3c75da87bd283a91U, 0xbd919124bd92950aU, 0x3d660f57bd799e9aU, 0xbc6aa513bcb1417fU,
  0x3cb6d754bc3d1e24U, 0xbd579bdebdb1c357U, 0xbd8e9502bd6b936fU, 0xbd3175b2bd5bd71dU,
  0xbd1772393d08d1e7U, 0x3d00bda63cc061abU, 0x3d21edb9bd0ec5cdU, 0xbd6411febd793404U,
  0xba12559e3d7b0e74U, 0x3c81d05abd1197e8U, 0xbca040cabd92c8dcU, 0xbd6b98f8bd0720c3U,
  0x3c99074abdce6d74U, 0xbcd03349bdb0e554U, 0x3d20df94bde3973aU, 0x3c5a7ab4bd1d673eU,
  0xbd86890abd82101bU, 0x3d13b1ebbd677989U, 0x3d6f46a6bc4d74b4U, 0xbd93261e3d416b03U,
  0xbdce5cea3d07f11cU, 0x3d9a822c3c44d45fU, 0x3d6b9bd83d341378U, 0x3d3d322e3d19723eU,
  0xbde8ff19bdbf944bU, 0xbdb6c9833ca62f77U, 0x3d17f597bd9a45b7U, 0x3d41e4e9bd05ad3eU,
  0xbd4b8f5c3c8d8d68U, 0xbd925baa3d9724ccU, 0x3cc077143c993902U, 0xbda1ee08bd90e78fU,
  0xbdc0af6f3d153c07U, 0x3cd92f533cf10183U, 0x3cf1dd353d70980dU, 0xbc6377b63cc19b51U,
  0x3c35cb2ebdcfd164U, 0xbd7ec6bbbd97ecfdU, 0xbd6979ac3d21496cU, 0xbcc2432a3cad6607U,
  0xbdc437b7bd0a64ceU, 0x3c38d8ea3d0a3f51U, 0xbd09aa253d33ae04U, 0x3d682846bdb531aaU,
  0xbd9129a0bc0045e7U, 0x3d023854bcf0abdfU, 0xbd1544f73b2078e2U, 0xbdd30f18bd9f24e8U,
  0xbca0959f3d61c63dU, 0xbdb5e8afbdc5cb5eU, 0x3d13394e3d048d0dU, 0xbda06e873d410092U,
  0xbd13ce17bd1a11a4U, 0x3c2b26adbdaa4ebcU, 0xbd927aa03d45e7faU, 0xbcf756b0bd64bdaeU,
  0xbd09b233bad37dc0U, 0x3bc8a90a3d19a8a6U, 0xbd642f65bda5908bU, 0xbd125420bd0fa8e0U,
  0x3d23d204bdc326e9U, 0xbb900efbbdaa5783U, 0x3d961bd63d09332bU, 0x3d09f7ccbc267192U,
  0x3d576513bb35fa87U, 0x3ced575cbce9a126U, 0xbd2c41363ba1e6e3U, 0xbcefbafebd90ba1eU,
  0xbd2232edbdf426d5U, 0x3dc5f73ebd8c29a8U, 0xbd2a41d3bd7dcd7bU, 0xbcad1862bd45d463U,
  0xbcca49fb3cf16f08U, 0xbc376e7b3d713d19U, 0x3c8d529f3ceedd70U, 0xbddb3677bd810b3eU,
  0x3c6c64223cda7938U, 0x3d12102fbc4cdaa7U, 0x3d8b75ffbd1a2dcdU, 0xbd86d924bdc55c51U,
  0x3d1d36e6bda08556U, 0xbd02772dbddc9d8aU, 0xbcf7d9f1bc5b10a8U, 0x3cb0c227ba9e8e64U,
  0xbd37e872bdcdb94cU, 0xbc87fef33d7a7b0fU, 0xbc1d7ca1bcaf7c51U, 0xbd2ffd88bd656486U,
  0x39920a95bdf05582U, 0xbd053f373d9856b5U, 0x3cbf399b3ceaec3eU, 0xbdd8028a3c257c32U,
  0xbd875d6dbd264615U, 0x3d646711bb09d705U, 0xbd9a00bebd1bcaa3U, 0xbc9a8da6bd3f899cU,
  0xbd83da35bc127fd0U, 0x39c171bebb9fc4fbU, 0xbdb30c093d6c599dU, 0x3cd309a8bc8c8366U,
  0xbd1af8c63d1c915cU, 0x3cb32481bd527811U, 0xbd734f72bdb15590U, 0xbdc587923c4bba34U,
  0xbc556b63bd77c98cU, 0xbc57d7ebbdbf53f0U, 0xbcf22cb7bc5e92b8U, 0xbb4b6e7abd68367fU,
  0xbeb0224dbe69f199U, 0x3b70423bbcd96099U, 0xbdef63a5bdeb174eU, 0x3da84a0fbdb41039U,
  0xbe14e648bdd7e209U, 0xbd547ff0be062575U, 0x3da02ef1bd25caf3U, 0xbed19e9c3dbec40cU,
  0xbca2a120be7b4729U, 0xbdf7a8f7be0ffb6fU, 0x3d97f997be65f6c4U, 0xbdccc02ebe8bfbc3U,
  0xbe0413fe3d206a02U, 0xbcc6ed6abdf4f3e0U, 0xbbd96789beba19ddU, 0xbca257853e21bb21U,
  0xbe6abd04bde4815cU, 0xbcbd14073dfd2672U, 0x3d90f2bd3e00a6c1U, 0x3de829d8be25827eU,
  0xbd298482bcf84e26U, 0xbd8c2fcbbe56865cU, 0xbdc386e3bdf7a245U, 0xbea44b053e4bbee8U,
  0x3bade556be50012aU, 0x3ad1bcc4be55d5cfU, 0x3ccc0168bcb14684U, 0x3c9ee1c2bd44c673U,
  0xbe623e703d725613U, 0x3db810a73c8dcfc4U, 0x3e1f3a0fbea61c30U, 0xbdd9ecf13e020b2eU,
  0x3d3b095b3e48d5d9U, 0xbd889bc83e811648U, 0x3e9d385a3dd242bfU, 0x3d943afdbe4aedddU,
  0xbd78bde03d9fb2c9U, 0xbd97e050bdb3a9e8U, 0xbe54da243db8b450U, 0x3da065ed3d4ca086U,
  0x3c9c5caebd5c086fU, 0x3db745a0be681630U, 0x3be886843c022a43U, 0x3d8b7b943b05c6e5U,
  0xbdd6c871bc0b7878U, 0x3d6ee3fe3ca9bd38U, 0xbd9bd7d9be21be2aU, 0xbc427416bce53de2U,
  0xbdda3f84be3c00d0U, 0x3d1a3336bd48364dU, 0xbd2ae461bdcdacd4U, 0x3dc143a3bdc3c3c2U,
  0xbdbba446be291f70U, 0xbdc91c96be18dc48U, 0x3e2af9a3bd823c3aU, 0xbd5ca166bcbbc6e5U,
  0x3e48b4de3bc5854fU, 0x3c9835f63d6c9640U, 0xbd7e2d9abe558362U, 0x3becadf1be17258cU,
  0x3c5867e23d6a1c01U, 0xbc7604aebde20f85U, 0xbd8c1920bd9f253eU, 0x3dc74d113d14b7dfU,
  0xbe981e7cbeaa3485U, 0xbca951e2bdb61d5eU, 0xbd8cdc343d6c8274U, 0x3e25c3c8bd2de405U,
  0xbc6f3a67be019f46U, 0xbe697c773d807395U, 0x3dccc8db3d78ab78U, 0xbe5574b0bd383b49U,
  0x3e83c4c9bc984ee5U, 0xbe1a67473d52b05aU, 0xbe03915bbdbcc34bU, 0xbcd97c73bdb3a7eaU,
  0xbde07c08bab33002U, 0x3bbc5352bd258d3eU, 0x3cdd3a1ebe22497dU, 0x3e238251bd133e94U,
  0x3da249223d7dd38dU, 0xbdf4f5d63e06e85cU, 0x3e92565e3e8a47a9U, 0x3daa659abd67f9c3U,
  0xbe4edfae3d474b6aU, 0xbe058c25bdb6bd8dU, 0x3e966ec43deb2827U, 0xbd3ec6b1bcd22f43U,
  0x3ec437493e8a284dU, 0xbc8df29d3e0a4512U, 0xbd86fc653daa685eU, 0x3e347ac53d908b72U,
  0xbd5f45303dd6943bU, 0x3c4c23c33d269e2aU, 0xbd73215b3d062613U, 0x3e9a2504bdc7e9b9U,
  0xbe0558dabdb15aa1U, 0x3decba183d442108U, 0x3d1e9891be65c839U, 0x3dea7febbd643c38U,
  0xbdd88de4bdf24022U, 0xbc6c6770beba4233U, 0xbd10a506bdb030edU, 0x3d78ed903c3e573aU,
  0x3e0b796e3d40075fU, 0x3d988e40bbc16d03U, 0xbdb2b09c3c7d2600U, 0xbddb9558bcff183aU,
  0xbcce0fffbdd2eec1U, 0x3d8500f93dc6bfcaU, 0x3bb0cbb33d93495fU, 0x3d5fa45d3dc597feU,
  0xbe0d2711be831119U, 0xbd2d83df3daf7493U, 0x3dce73f0be03043eU, 0x3e0e5a373dfffcf5U,
  0xbdbbf342bd9ee71aU, 0xbe93e1d8be0974daU, 0xbdca45f33dd48741U, 0xbe1722d83d54ad7cU,
  0x3d4b21febdca9130U, 0x3caf1c9e3e37cf6eU, 0xbdedbe32bd361f73U, 0xbe3eb1eabd74f8d7U,
  0xbdfc154cbd91417eU, 0x3c9b406f3def94dcU, 0xbe201c25bc0e10ddU, 0x3d6f34df3dd6b366U,
  0x3da6c7b5bd1f2682U, 0xbb54d1973e7871ccU, 0x3e8ac188bc7afdafU, 0x3e27aa7fbcfc8de9U,
  0xbe5d01033de57428U, 0xbe767327bded914aU, 0xbd56a61c3e6cd9b1U, 0xbda2d122bb4b2c6bU,
  0x3e390681bd32dc96U, 0x3e0e95b43e14305aU, 0x3d2d74373e3a60fbU, 0x3dd0af323e438b02U,
  0xbe2db100bd67da50U, 0x3e3a74043e7e2744U, 0xbd0b3c06be1729bdU, 0x3e083e2e3da5491fU,
  0x3d5847a7bc818fc3U, 0x3c85db443d8228f1U, 0x3d0291c1bdb195c9U, 0xbcbc60a13d2e6be1U,
  0xbdb1d9b0bdac38c3U, 0xbd6a8fe6bdc20386U, 0xbdb00f7abd07c7ebU, 0xbdae0f74bdd14557U,
  0x3ce54d763bb91587U, 0xbd054e8fbc97d9d2U, 0x3c00c7403d191287U, 0x3d112f71bd98cfddU,
  0xbd1d57e8bd0fade6U, 0x3c2865b33d575aa5U, 0x3d0e0a953c70f05eU, 0xbcb15182bd9dbc93U,
  0x3cb0d77dbd913a4fU, 0xbcbbdbc0bdaec055U, 0xbc51fc4bbca979ccU, 0xbc7bce7d3cc90386U,
  0xbd9630293d46acf8U, 0x3bb6c2c53cf9b760U, 0x3d0390943d664bb3U, 0xbdac3822bcc91cddU,
  0xbd6e02be3bafce2fU, 0xbd7de31cbd7c33bcU, 0x3ca76e47bdaa6095U, 0x3d298f213b47297cU,
  0xbd0315f3bd5158fdU, 0xbcf895693b85cc44U, 0x3d7d59903d91c20bU, 0x3d5173a93b61ec2cU,
  0xbd6dee09bdc34324U, 0xbcfa56e3bd0f2af9U, 0x3d0da0a23d0d4e11U, 0x3c39a9443d239358U,
  0xbd7465efba947b9bU, 0x3bd304753938aaceU, 0x3d7d1ec53a6203fdU, 0xbc8320993cf28915U,
  0xbd90603cbd478d07U, 0xbd960de93cf5408aU, 0x3c46e9b2bd13c270U, 0xbdbb47213d67fc9bU,
  0x3d2469b23cadb09eU, 0xbcc0a65cbc92a739U, 0xbdb81322bd1d6527U, 0xbd4b9a85bd93de20U,
  0xbbda130f3cd72d1dU, 0xbd9d4a17bca0e0f9U, 0x3d8cca9dbde6ed99U, 0x3d33d71cbd1aac77U,
  0x3d78c4363d834b43U, 0xbd75b8223d23a9eaU, 0x3bd0c9b5bb540cd2U, 0xbd59f4bd3ce1e8c5U,
  0xbd580d7bbcbfcd03U, 0x3d0958d13c593bfaU, 0x3ca55b423d2d1285U, 0x3d6c78ea3d09e351U,
  0xbcb05dc8bdc32d3bU, 0x3d8618b0bd08d270U, 0xbda96d5d3c8ff427U, 0xbd44caddbd0ed8beU,
  0xbd38f67dbdb4ab4aU, 0xbda47a39bc8fef19U, 0x3d5ebcaebdc746e2U, 0xbd27456cbd6a5badU,
  0xbd073c0fbdb0bdcaU, 0x3d2683c4bc22c077U, 0xbd9e27ed3d0797c8U, 0xbce510413ceb69ddU,
  0xbd8d4125b9022fd8U, 0x3d9697dfbdbd5671U, 0xbd9932933d3042d6U, 0x3c5f5de93c0ea954U,
  0xbd530852baf51099U, 0x3d9220a9bd93a735U, 0xbd7945a6bdac37b0U, 0xbc3db41cbd94dc5cU,
  0x3d5ea1d0bda1a2c2U, 0xbb1fcd97bd39fc7eU, 0xbc56ccfbbd12c2c0U, 0x3d1a0e583d32ae32U,
  0x3d034be0bd895805U, 0x3c323237bdb89678U, 0x3c628cebbda73547U, 0xbccba1c03ceac663U,
  0x3d3966cdbd803726U, 0x3d2f0f5f3d753e7fU, 0xbc2f5ddd3cd05df3U, 0xbc00504d3d60c949U,
  0xbd9a89eeba9f93bbU, 0xbda29462b98b2e94U, 0xbd959c29bd5c64a1U, 0x3d44e8c03b99946dU,
  0x3c9d82e4bd49f428U, 0x3d6666b83b91ca9cU, 0x3d44fcfa3c8c55f9U, 0x3bce499e3c84fd14U,
  0xbc5979923d29c605U, 0xbdc110b63d1ea7fbU, 0x3d47aebdbc903e8bU, 0xbcf3c125bc66273fU,
  0x3d69ef78bd0b0217U, 0x3d614562bcdc9fa5U, 0xbdbeb549bd022ac2U, 0x3d451ff8bd56f4baU,
  0xbdb1e60dbdbbd0d5U, 0x3d1f7d4fbd6ecf52U, 0x3b02386c3d7e0b50U, 0xbcca3fbabdbab15aU,
  0x3c1b1e2cbd287d69U, 0x3ba93bddbdc2e99cU, 0x3d898ef73c0f443aU, 0xbdcbf86cbc33715bU,
  0xbba8f7b4bd0037f1U, 0xbd6f62af3d0204cdU, 0x3d55104abd5c28b1U, 0x3c2ec957bcc81201U,
  0xbdc779bfbd599d03U, 0x3d19cec93c37581dU, 0xbdd94aae3d1e2ae3U, 0xbd33479cbdb007cbU,
  0xbdba4a08bd95a898U, 0xbb00ba3c3cac11bbU, 0xbc363520bdb83a7eU, 0xbd4c0386bd6a507dU,
  0xbbd9474d3d275732U, 0xbc81aa643d17d8a4U, 0xbdb0e617bd834c6cU, 0x3d11b645bd559bf5U,
  0xbd7cccdfbda3f980U, 0xbdb89acfbdad1e8fU, 0xbd3cda47bd99637aU, 0xbccd91e4bd840283U,
  0xbdb49ca7bd1b37aaU, 0x3d6cbc883d622f24U, 0x3ccec1463d03e460U, 0x3d6e10fabd99f600U,
  0x3bf434b73cfcff1fU, 0xbdb48b443c8b6953U, 0x3b2b6663bda6ce75U, 0xbd3e31503d564931U,
  0xbdb16baa3cbab852U, 0xbcd00dd73c8b534eU, 0x3cf059703d7117a5U, 0xbb86d363bd8c38ceU,
  0x3d3af5c43cc2ec0bU, 0xbd5e06513d8092a4U, 0xbd935aebbc6d1381U, 0x3cf1d7c5bdbe0a44U,
  0x3d156c49bd442d1aU, 0x3c697c17bd430906U, 0xbdaa0c90bd74d2f6U, 0xbc00a1663d63e245U,
  0x3d11d39c3d1459a6U, 0x3d467d02bdb5816eU, 0xbce4b6bfbdc01005U, 0x3d1ac055bd1d63d4U,
  0xbdf0a8ce3c34c4d1U, 0x3d16a0d9bd8054d1U, 0xbd7017c8bda56505U, 0xbdca66e03c3a69e9U,
  0xbd40fd9cbdafa287U, 0xbcd49e4e3aba8928U, 0xbcac149f3d206384U, 0xbbdf5b7a3d5e1199U,
  0x3d0f1f0b3d8e88fbU, 0x3c9d9712bc5016b2U, 0x3cdb92463d2c2753U, 0xbbf5ba2a3d87814eU,
  0xbca245853c5ae7eeU, 0x3c94e83cbdd4e1a4U, 0x3d1d76213cf55484U, 0xbd594e5cbcbee148U,
  0xbdadefdebdb1aa1bU, 0xbd455a683d26525eU, 0xbcfb4028bd12fafeU, 0x3cf6be103cc50196U,
  0xbd0951373c9b9dbaU, 0xbd5d805fbc8fbe7dU, 0xbd91de2dbbe10f9eU, 0xbdafc948bd1ea1dcU,
  0xbc8fde15bcadb861U, 0x3c613fec3c7b47afU, 0x3ba927e9bda5400dU, 0x3d6112b9bc5043d4U,
  0xbca9988a3d3e84e1U, 0x3ca53cc93d1d9131U, 0x3d41331cbcc4f8f0U, 0x3d90a5913cac0c52U,
  0xbd87cf8dbd528546U, 0xbc130eedbd1da294U, 0xbd633fa4bda470ccU, 0x3d550ea03c887dfaU,
  0x3b3ab316bd4c0870U, 0x3d3d7dec3d0968e1U, 0xbd8bdf2fbd34b47dU, 0xbdbefbf23d521c9dU,
  0x3c8e64e43ce21422U, 0x3d318f5d3c355f5cU, 0xbd05e628bd914e0fU, 0xbd6985ecbbf09d15U,
  0xbd66b78fbd2f4ec9U, 0xbdc53ee63d485f3dU, 0xbd095940bd004d08U, 0x3cb8a68a3cef8c68U,
  0xbdb355533d7d89d3U, 0x3c817f0a3d2190b5U, 0xbd8449983ca707c4U, 0xbd6f0c65bd010277U,
  0x3d8a2778bcc89345U, 0xbdc3b405bdc6de7cU, 0xbd80c8e73d327857U, 0xbba65376bc8bb703U,
  0xbdc538dc3d02a942U, 0xbcabe43abce9859dU, 0x3c7a93533d328a7eU, 0x3d18407fbd82d586U,
  0xbc7ee6a43d11ea35U, 0x3d5adad2bc54839eU, 0x3d75be093c93814cU, 0xbbb90cc5bdb7d4ddU,
  0x3c5d2cd03c4085ebU, 0xbd880c25bc82bf42U, 0xbcb35daf3ca2ec05U, 0xbd160dae3d6c9111U,
  0xbd6805edbd769459U, 0xbdbb15e23d260830U, 0x3d760e53bd259d35U, 0xbc7d5435bc0980c6U,
  0xbc9022163d19e0b1U, 0xbd82f8adbc1ee581U, 0xbd1522ddbc959e8aU, 0xbd689822bd3fcda8U,
  0xbdb73a2dbc84aad2U, 0x3d136bf4bd40a471U, 0x3d793800bae779e0U, 0x3d22fa153d431e86U,
  0x3d175b0ebc33d99cU, 0xbdb7a2a73ba7104eU, 0xbbd5c794bd7783a4U, 0xbd44bc8b3d4551a3U,
  0x3d2516cebdc9f5afU, 0xbca91cbb3d5b4f33U, 0xbcef9d27bcb31864U, 0xbd506f07bd3b02acU,
  0xbda19184bd78e98cU, 0x3c9019a3bdada4a6U, 0x3d544b21bddefa78U, 0x3d057da5bca4d706U,
  0xbdb561ccbd12be6dU, 0x3d5acc3fbd4fc78aU, 0x3bf2c32b3c4cc8b8U, 0x3d915b723d0aaceeU,
  0xbd4456e03cf7cea8U, 0x3d156ff7bc39da2dU, 0x3a71c1afbd88d22dU, 0xba1d409e3d033282U,
  0xbdaa8bdebd0eff33U, 0xbc938d68bd963e5bU, 0xbd0643acbd9df454U, 0x3d2a6cb73c8b7d4cU,
  0xbcec2fe3bd8fa2acU, 0xbc134758bd7f7e4cU, 0x3b1b7923bd4b6fc2U, 0xbd4c557bbdc14d76U,
  0xbca409b8bd0a5489U, 0xbd69a7f5bd86a099U, 0xbd3da7b7bd49d57aU, 0xbcbc6c5cbc8f9579U,
  0x3c0425293c39859bU, 0xbcd4a83bbd980899U, 0x3d77b6d1bc940402U, 0xbdb6543bbdb4d04dU,
  0x3d430b213cf0ffcfU, 0x3d3d146abd9453e0U, 0x3cc1f74abd364489U, 0xbd82aa1bbddaa698U,
  0x3cc8758b3d9919b6U, 0xbd0cb009bd0606b4U, 0xbd86980dbd906980U, 0x3d3563643ae3bed9U,
  0x3cb1d2253d255a52U, 0x3d104a773cb7c97fU, 0x3ace1faabd053fabU, 0xbdae8bcbbd8037cdU,
  0xbd4bd4d53cdcdcbaU, 0xbd6207dbbcbc8a3aU, 0xbc8c0bdabdbe26afU, 0xbd38966cbd4b5957U,
  0xbdcf10ffbd9a6217U, 0xbd1ac82ebdb86c0dU, 0xbdbea788bda82fc8U, 0x3cc3817bbde6b7a8U,
  0xbd1edd8f3c171d8dU, 0xbd96ce6abddf96e8U, 0xbc72af05bd403f9aU, 0xbd9036c9bccb0a06U,
  0xbdf187afbd7371bdU, 0xbdd7e305be0c48caU, 0xbd60d134bd59a8eaU, 0xbd97a88ebd4f7c64U,
  0xbd980fc63cb3727cU, 0x3bd698c7bd6f0cdfU, 0xbd329085be0b9de0U, 0xbd2f61f2bb017c68U,
  0xbabc815c3a3dd61cU, 0x3cf831a6bd74e046U, 0xbd1cb20cbd6ef3c7U, 0x3d0cb0e2bc61bafcU,
  0x3c7e45b8bdf11064U, 0xbd902f0c3c819ed3U, 0xbdc3ad77bdad79d4U, 0xbd9b317c3d2d2c87U,
  0xbbad1af13baab3fdU, 0xbded3261bc37da50U, 0xbd8eba383dbd4148U, 0xbd30ba8ebc7a1301U,
  0xbddea19e3c18c3d5U, 0x394b3158bcfb1528U, 0x3cad6b80bcd7cc3aU, 0x3d3bfad83cb759d5U,
  0xbc6abdff3bad6716U, 0xbbcef7e8bcf02eb2U, 0x3cb87fadbdec0894U, 0xbd82ac463ca41aa9U,
  0x3c75e0383d20c019U, 0xbc576844bd82581cU, 0x3d04d4033cfee9d0U, 0x3d901f723cb3be00U,
  0xbdb18928bd0de1d9U, 0xbd81da86bbfb22ccU, 0x3cd24c9a3ccf0d7cU, 0xbc864da1bdca4f40U,
  0x3d2f05f0bd852900U, 0xbd55c4dbbd7e6131U, 0xbdc72ce1bd8f3468U, 0x3d988811bcc30ee9U,
  0xbd8493f63c7fc9ecU, 0x3be50b08bdc80e5eU, 0xbd2fec313ca323daU, 0x3d0231c5bd494fd8U,
  0x3b3fb236bd2c5247U, 0xbc96676dbdc44cd8U, 0xbd1c1859bced05c5U, 0xbb25b3833d5b83d0U,
  0x3d0aa801bc460b60U, 0xbce9861cbd2126d0U, 0x3d45488bbc7354acU, 0xbd22b2afbd67cecbU,
  0xbcda656c3bab3573U, 0xbdfdc3edbdb55d0eU, 0xbc74be61bde89d37U, 0xbd2785cfbd3dd03aU,
  0x3c0dac403d3556b2U, 0x3ce6d957bdbd48bbU, 0x3d6cb93dbd8184d5U, 0xbd1acdd2bc9305e6U,
  0xbd4d7aa0bbba99c1U, 0xbc83173fbdc2d1aeU, 0x3ce849d2bd9af9c4U, 0xbdab3dd8bdba1175U,
  0xbd804ddd3c80126aU, 0xbdbadcefbe1ea567U, 0xbcdd3c3e3d65bbd7U, 0xbc7f7b0a3d1adda7U,
  0xbd81cfa63d92ecdbU, 0xbe02aed83d1317d2U, 0x3af0a470bdd82b23U, 0xbd2b59df3d3608bfU,
  0xbb0dcd5f3c683d4bU, 0x3c9f35c3bd00c8f0U, 0x3d3b83c4bdd03882U, 0x3c8d163dbd378df3U,
  0x3d415a05bdccb946U, 0x3c7ca8e4bdc3fa55U, 0x3cb55203bdd44a59U, 0xbdb1722dbddf70e2U,
  0xbdcdaa533c68ffceU, 0xbe1bb2cbbd9cb320U, 0x3c4888f3bd9f81edU, 0xbd2a44d93d4e3b77U,
  0x3d11cc15bc8937e8U, 0xbd8588f5bdeffe2dU, 0xbb46fe21bd13c084U, 0xbad4df643d645ba8U,
  0xbd5c71853b403764U, 0x3d10f4acbcb43722U, 0x3c36d205bdd02de0U, 0x3d95ea7ebd5fe6fcU,
  0xbd96053fbd90ffacU, 0xbd6acc3dbda1afb5U, 0xbd46259abd8b68c8U, 0xbdd52337bd918c2dU,
  0xbd2dd42dbd5b0494U, 0x3c22aeadbd33f96aU, 0xbc9fc7d9bbdd5491U, 0xbddb59f4bd8955abU,
  0xbaaae56cbdc85205U, 0xbde82ff9be132830U, 0xbdbc1185bd9f2ea9U, 0x3d9da16dbda227cbU,
  0xbdabbcacbd937586U, 0x3d1fd7343c6871f2U, 0x3cfe5c79bd60ae8bU, 0x3cc035d0bd689753U,
  0xbd01ad57bdd5e286U, 0x3d3823c33cf30efaU, 0xbdb409b93ad0cf22U, 0xbdace339bc970f18U,
  0x3d362e2e3ca35f5bU, 0xbccfaa40be070f37U, 0x3d438f803b406e04U, 0x3cd859edbd1b0d1dU,
  0xbd852f5c3d001720U, 0x3c338bc6be113577U, 0xbd3900373d6fdd82U, 0xbc377ab83d55b317U,
  0x3af209bfbd85702cU, 0xbd8bc3c93d7f556fU, 0xbd902062bdb88adaU, 0xbdd8b733bd5c9e27U,
  0xbd60e4e6bdd3815cU, 0xbdbb58be3bbaf23eU, 0xbd39b2613d3ed5fbU, 0xbd167d11bd78cebaU,
  0xbd5eff0ebc8ee95dU, 0xbcd0f30abda66b5dU, 0xbd966b9fbc399ac6U, 0xbd4060e9bd814d4dU,
  0x3d5be8c1bce2138cU, 0x3d147188bd831ae6U, 0xbcecf6c13c1df5c6U, 0x3d32920539a12f17U,
  0xbd812ab0bd37aa11U, 0x3d008c7cbd98d685U, 0xbdea7f203d2668b0U, 0x3cece7b1bcf9a4ffU,
  0xbdf3af2bbd0c5e7aU, 0xbc9bf5bc3c58b83cU, 0x3ca4bf693c8d2681U, 0xbd86a6ea3d5e7affU,
  0xbda2779a3bcba6a4U, 0xbbd7cb173d1c1e6bU, 0xbd3dc59abce07a74U, 0x3c9b6bb73c714eebU,
  0x3b0d4c4dbde7fc03U, 0x3ca4066d3df120d4U, 0x3d8dc423bdae8b51U, 0xbc305721bde2f131U,
  0x3cf452b9bdb09528U, 0xbcc27dd9bcf95375U, 0x3cc6fee43d739385U, 0xbd5c1692bc24c79eU,
  0xbd4001a03cb3b7b2U, 0xbb0e29d5bdc223afU, 0xbddf0e5fbcf4e0c1U, 0x3c9c2f3dbdbbd2e5U,
  0xbbba9079bda23ac7U, 0x3cd2a63e3cc46efeU, 0xbe0a7dbdbd507eebU, 0x3c7095333c324aacU,
  0x3cee6007bb77d6dfU, 0x3cd2f1b53d84fc31U, 0x3d6edf8dbdb2daffU, 0x3d53c12fbde90903U,
  0xbdbc191abdaffd30U, 0x3c8f1249bde0645eU, 0xbe08acd0bbd53939U, 0xbbe210d5bd2f6bb4U,
  0x3c07b1953d0f5ed3U, 0x3d9375afbd3c41fbU, 0x3c8c4b87bdc0429cU, 0xbdd726fbbd7355ceU,
  0xbdaded1b3d296d6fU, 0xbda16a97bc262dc0U, 0xbb10f729bd4d5a5bU, 0x3d222442bda7d817U,
  0xbd173858bd8c1b4fU, 0x3c984df8bd9c9641U, 0xbdd54efa3d1fbf07U, 0xbd46400dbd18b3b9U,
  0x3c9c495cbd6f03a8U, 0x3c95342bbc5ce644U, 0x3a3e1203bd5de277U, 0xbdce484cbd24718aU,
  0xbde928443cfa5635U, 0xbd1aaba13d483785U, 0xbd603145bd150166U, 0xbce27815bbded8b3U,
  0xbc905f4d3b31fb1cU, 0x3cfa6fcb3b0d3ca9U, 0xbdda0affbd8f2055U, 0x3bf82701bd831656U,
  0xbde3655fbdb1c77eU, 0xbce36c41bd5a1a12U, 0xbda89f203d163c10U, 0xbdccec89bd908924U,
  0xbd9ac283bca6f247U, 0xbdea39803d386fb8U, 0xbdb75f52bc873f16U, 0xbdcd57dfbd945968U,
  0x3c188761bd7c64e6U, 0x3c4d20ad3d575ee5U, 0xbdc65266bbd26ddfU, 0xbb313841bd5406e8U,
  0xbdcddff0be019d84U, 0xb9e6904d3d304547U, 0xbd7e933dbd990626U, 0xbcc43f0e3d5c28d2U,
  0xbe0b0f1c3ce7372aU, 0xbd0b555abdf3dc38U, 0xbd7219de3d9c8b4eU, 0x3c3d97c1bda2fffbU,
  0xbd4f18ba3be26016U, 0xbd4d5bc03c66b672U, 0xbd25976abbf16c0bU, 0xbdccbac0bdf90c9dU,
  0xbdb96e053a85f94dU, 0x3a8548b0bd348840U, 0x3d587bb73d433a49U, 0x3d102d21bc62d945U,
  0xbdaf6ee4bd4daf37U, 0xbd9cf1223dc8c0c9U, 0x3d4e1abd396cd5f0U, 0xbd0e1847bccac637U,
  0xbd282dabbd1b5e8cU, 0xbd8146e3bc997953U, 0x3c3563f9bda39c4cU, 0xbdd31f14bd9802f9U,
  0x3ce9188abdf49e27U, 0xbce4ac7b3a2f79eaU, 0xbd7a4887bd117432U, 0xbd0129d0bc543687U,
  0xbd925425bdfd23c6U, 0xbdc45841bd97d79eU, 0x3d2803c83ccea2adU, 0xbdab92de3b45ca39U,
  0xbc9000d93bf22f9dU, 0xbdc8d8fc3c86efe9U, 0x3d6ca319bd580ca5U, 0xbd8083113c4bdf57U,
  0xbd8a04cebdbf22f8U, 0xbb99d8d4bd97a209U, 0x3c9f7987bd484a12U, 0xbd6c043abc2a510fU,
  0xbb553833bdff9dd0U, 0xbdcf3ca3bd7a6868U, 0xbdb05596bcff9a72U, 0xbda069b7bc0172f0U,
  0xbdc624bcbc38d265U, 0xbd19b4aebd9d6cf9U, 0xbc9b2872bde4af70U, 0x3c156f90bdb7992dU,
  0xbd80eda0bde127e3U, 0xbd2079b93d5c8ddfU, 0xbd8fc4f73b340f61U, 0xbd853ba2bcc41c98U,
  0x3ca3f2e4bdaa9bfbU, 0xbd42e4e4bbefe793U, 0x3ce1be1abd31b66aU, 0xbd94e1b0bc195212U,
  0xbd7d4178bd6e7905U, 0xbd47deecbd94789aU, 0xbddd7c273b240258U, 0xbcbd21783be713efU,
  0xbdad33c63d1a4977U, 0xbdaf2a293bb6a2d8U, 0xbdfb5114bd4de89cU, 0xbddf1325bdaeda54U,
  0xbd3006afbda6a3e9U, 0xbd7cf517bc966dccU, 0xbd8b3de2bdb61312U, 0xbce25f33bb82ed28U,
  0xbdb09f9ebd10728dU, 0xbd85ec3bbdaab78fU, 0x3cce78883d2d4447U, 0xbd7dde31bdac0628U,
  0xbcc74e843d8d932aU, 0xbb9fda78bbb00e42U, 0xbd69aaa3bbe6c506U, 0x3bac3ed33d86a887U,
  0xbc6d8d96bd3fb7b9U, 0xbbfec27cbbfd5eb5U, 0xbd9542d5bb94aa23U, 0x3d57ade4bdada10bU,
  0xbcbb82743d42b88dU, 0xbd9323c8bac445e7U, 0xbdbf3baebd1fae7cU, 0x3d7310563b14c6faU,
  0x3c4308e8bd231f27U, 0x3cbe893f3d50b039U, 0xbd882861bc15aabaU, 0xbd67a87abdbd471dU,
  0xbd94639abd1bcc2cU, 0x3cf51347bd4e3139U, 0x3cd16ff0bc5a4a7aU, 0x3c9fab5dbb9f46f0U,
  0xbc9ebb90bd93e022U, 0x3d1c4212bc8657ffU, 0x3cfc21583d8e71c9U, 0x3d68cd173d0b430aU,
  0x3cf37287bd8f827fU, 0xbd304865bd849ccdU, 0x3d059af23c82a7e7U, 0xbd980e593d3dc44eU,
  0x3c87b2bb3c4f5bd5U, 0xbc0e78a93d04311dU, 0xbdaceceebd9ffe36U, 0xbd09521fbd08958cU,
  0xbccf74eabcff34baU, 0xbda3359a3d2bb786U, 0xbd02e128bda72023U, 0x3d36738ebdb092baU,
  0x3be42102bbffa941U, 0xbcbdc0f13dafa1c3U, 0xbd322dd6bc66ee96U, 0xbd45f242bceda131U,
  0x3d71cddb3d5f39b2U, 0x3ca7bd08bd274710U, 0xbdb60059bda33edbU, 0x3d594a42bb4d0854U,
  0xbd3911fabd52f6e9U, 0xbceb5284bd62b567U, 0x3d66c67abbffe2b1U, 0xbd60a60a3d24a607U,
  0xbcd454673d55a3bfU, 0xbd8819c8bd1321d2U, 0xbbfb8c5c3c969f29U, 0x3bb2f863bd254913U,
  0xbdbdc8fdbdaa91bcU, 0xbd1fcb67bd3067f1U, 0x3d84e6edbdaaa5c5U, 0x3c91ccda3d1159a2U,
  0xbc99c3b4bce6d4c4U, 0xbd895c94bdbd5f2dU, 0xbd8445a13d29ad2fU, 0x3ce86821bd90ce4fU,
  0x3d6a18af3cae7a06U, 0x3d7db61f3c90a89eU, 0xbd438a31bdbef10eU, 0xbd3bb5a63d3ca344U,
  0x3d0fdfdcbd0d6631U, 0xbd2cd9bfb9c3d3a9U, 0xbdaea6973b7aa84bU, 0xbd0b62d5bdb3945dU,
  0xbc3a8bd8bd273635U, 0x3d23cfb93cfea7e1U, 0x3d660946bcc740ddU, 0xbc826e65bc7a36d1U,
  0xbc6bdcd5bd8c0aefU, 0xbc8f1e7d3c96b6baU, 0x3d823100bd751a47U, 0xbdd172a53caf3e14U,
  0xbd9a447fbd920995U, 0xbda4c8cfbd4bf0d5U, 0xbc0bf634bb9cdfd7U, 0x3c1df0f6bc5d9573U,
  0xbd1889acbc5c159dU, 0x3d03d3d3bca4aa29U, 0xbd839906bcab25aeU, 0x3c508901bcd05617U,
  0xbdb03291bd2ec0d0U, 0x3caf42a8bd3a31b6U, 0x3cf055f0bc32de87U, 0x3ca993d1bdb4f316U,
  0xbc44d4e23b89c054U, 0xbd2f3c04bd8bd1c5U, 0xbd1076e53ccea84dU, 0xbdc0baadbd19a718U,
  0xbd655c32bd10d1e2U, 0x3d965d43bd294ab4U, 0xbbc7035d3cf40cadU, 0x3be7e971bd24585aU,
  0xbda598663c0a6332U, 0x390d5eacbd05bb1eU, 0xbb843a7e3d45c0d1U, 0xbd8ea642bd093d28U,
  0xbd5b7ec2bc9bd2c4U, 0xbd3045b53ca2686bU, 0x3c67970f3d306846U, 0xbd396a11bd90d6e5U,
  0xbd7ba903bd5d6a07U, 0xbda1708f3c907226U, 0x3d6b2ff4bdb9ea90U, 0x3d4fe6acbd52f61eU,
  0x3d7032cabd5eb941U, 0xbd685128bc1bcd07U, 0x3d00918d3d4cbbedU, 0x3a2ee3963d0cf1c8U,
